<pad>	0
<s>	0
</s>	0
<unk>	0
(ADJP	0
(ADVP	0
(CONJP	0
(FRAG	0
(INTJ	0
(LST	0
(NAC	0
(NML	0
(NP	0
(PP	0
(PRN	0
(PRT	0
(QP	0
(RRC	0
(S	0
(SBAR	0
(SBARQ	0
(SINV	0
(SQ	0
(UCP	0
(VP	0
(WHADJP	0
(WHADVP	0
(WHNP	0
(WHPP	0
(X	0
ADJP)	0
ADVP)	0
CONJP)	0
FRAG)	0
INTJ)	0
LST)	0
NAC)	0
NML)	0
NP)	0
PP)	0
PRN)	0
PRT)	0
QP)	0
RRC)	0
S)	0
SBAR)	0
SBARQ)	0
SINV)	0
SQ)	0
UCP)	0
VP)	0
WHADJP)	0
WHADVP)	0
WHNP)	0
WHPP)	0
X)	0
▁	-0.320098
▁the	-4.23352
s	-4.36379
,	-4.51409
C	-4.77847
D	-4.77847
▁.	-4.82756
ed	-4.89767
▁of	-5.08033
▁and	-5.24526
▁in	-5.35195
▁to	-5.43009
▁a	-5.58369
ing	-5.72548
y	-5.99475
▁was	-6.04507
ly	-6.17391
d	-6.20213
▁with	-6.44423
▁that	-6.45426
▁for	-6.4789
.	-6.48405
▁as	-6.51829
▁'	-6.59374
▁on	-6.59929
▁by	-6.62567
▁be	-6.69603
▁is	-6.71118
a	-6.7313
▁from	-6.89309
▁his	-6.91109
▁it	-6.92637
on	-6.96889
▁at	-7.01664
▁he	-7.0618
▁were	-7.09995
e	-7.19407
in	-7.25892
▁had	-7.36534
▁which	-7.41358
al	-7.44873
▁are	-7.51702
t	-7.53074
▁this	-7.57049
▁not	-7.60397
▁an	-7.604
▁their	-7.63193
l	-7.64273
▁first	-7.64432
▁but	-7.67662
us	-7.69375
ies	-7.71874
th	-7.73163
also	-7.73699
i	-7.77163
▁after	-7.78951
and	-7.79999
▁her	-7.80979
▁its	-7.81076
▁they	-7.81372
▁have	-7.85538
st	-7.87821
▁has	-7.89994
▁been	-7.92401
▁who	-7.94672
out	-7.95402
an	-7.9557
▁year	-7.9725
er	-7.9756
▁she	-7.97649
n	-8.02675
▁or	-8.05804
▁new	-8.07783
during	-8.09769
▁when	-8.1086
▁other	-8.16156
▁into	-8.21434
▁time	-8.21717
▁would	-8.23106
▁all	-8.28733
the	-8.29423
▁him	-8.29573
▁some	-8.30597
is	-8.33004
▁over	-8.34832
▁game	-8.36484
es	-8.37387
o	-8.37616
r	-8.38143
▁more	-8.40083
▁may	-8.41978
man	-8.4458
▁later	-8.45171
▁while	-8.47594
came	-8.47954
▁there	-8.48215
ary	-8.48337
though	-8.48399
▁through	-8.48464
▁includ	-8.48471
▁up	-8.48546
▁about	-8.48862
▁again	-8.48972
tween	-8.50063
'	-8.50637
▁song	-8.50899
▁w	-8.51692
▁play	-8.52425
as	-8.52557
m	-8.53689
▁most	-8.54411
▁season	-8.54427
▁part	-8.54963
▁than	-8.55688
cause	-8.5659
▁follow	-8.56782
land	-8.58166
he	-8.58231
▁second	-8.58837
▁made	-8.58868
▁no	-8.60972
▁record	-8.62144
▁unit	-8.62381
▁film	-8.62468
▁under	-8.63727
▁before	-8.64847
▁album	-8.65385
▁state	-8.65413
▁city	-8.66216
▁number	-8.66846
▁high	-8.67658
▁such	-8.67758
ish	-8.69254
ce	-8.70154
by	-8.70418
able	-8.70665
▁world	-8.70755
ion	-8.70882
▁them	-8.71125
▁many	-8.71964
▁serie	-8.72409
▁being	-8.72637
these	-8.72775
▁both	-8.74723
▁area	-8.75033
▁south	-8.75288
ity	-8.75301
▁where	-8.75478
▁north	-8.764
▁you	-8.76465
▁war	-8.78046
▁large	-8.79332
▁can	-8.79793
▁work	-8.81242
gan	-8.81374
▁call	-8.82745
mber	-8.82937
en	-8.83734
h	-8.83963
▁name	-8.84431
▁then	-8.85998
at	-8.86248
▁like	-8.87074
▁final	-8.87128
▁end	-8.87141
ever	-8.87896
▁form	-8.88152
▁episode	-8.88491
to	-8.88577
or	-8.88818
round	-8.89239
aid	-8.89629
▁long	-8.8968
▁found	-8.9145
▁known	-8.9209
▁century	-8.93378
▁force	-8.9369
it	-8.93912
▁near	-8.95718
c	-8.97595
▁american	-8.98069
▁de	-8.98689
▁remain	-8.99277
▁release	-9.00483
▁along	-9.0144
▁use	-9.02327
▁general	-9.0283
ver	-9.03165
▁did	-9.03329
▁original	-9.04034
▁show	-9.04076
▁could	-9.0434
self	-9.05361
▁unti	-9.05629
▁people	-9.06212
est	-9.06552
▁how	-9.06597
▁church	-9.06791
le	-9.08188
▁great	-9.08499
▁character	-9.0863
▁states	-9.08687
▁well	-9.08729
▁19	-9.0908
▁b	-9.09216
▁since	-9.09225
▁return	-9.09565
each	-9.0978
▁music	-9.10054
▁will	-9.10082
▁team	-9.10375
▁player	-9.10511
age	-9.11367
▁place	-9.12473
▁group	-9.12866
▁brit	-9.12908
▁main	-9.13329
▁earl	-9.13748
▁so	-9.13854
▁same	-9.14547
▁single	-9.15221
▁un	-9.16522
▁km	-9.16663
most	-9.16745
▁national	-9.16766
ember	-9.17276
▁august	-9.17304
▁small	-9.1757
▁severa	-9.17811
company	-9.18241
▁support	-9.19041
▁start	-9.19065
ic	-9.19219
▁m	-9.19491
▁f	-9.19667
ber	-9.20633
▁john	-9.20764
son	-9.21256
▁down	-9.21322
um	-9.21457
▁river	-9.21877
▁school	-9.22013
▁lead	-9.22478
▁back	-9.22828
day	-9.22955
▁week	-9.23679
▁german	-9.23916
▁home	-9.24084
▁arm	-9.24625
▁point	-9.24716
▁west	-9.25008
▁award	-9.25543
▁system	-9.25995
ry	-9.26014
▁best	-9.26091
▁result	-9.26117
▁storm	-9.26727
▁appear	-9.26986
▁any	-9.27841
▁attack	-9.28115
▁howe	-9.28241
▁order	-9.28466
▁june	-9.29531
▁consider	-9.30417
▁due	-9.30554
▁last	-9.3121
▁short	-9.31319
▁child	-9.31561
▁off	-9.31821
ton	-9.3216
ment	-9.32487
of	-9.32719
▁government	-9.32874
▁island	-9.33591
▁late	-9.33853
▁what	-9.34866
▁open	-9.35349
▁octo	-9.35491
▁include	-9.35681
▁march	-9.3648
▁club	-9.36577
▁title	-9.3723
less	-9.37362
▁games	-9.3747
nother	-9.37476
▁according	-9.37837
▁league	-9.37996
▁east	-9.38328
▁much	-9.38528
▁major	-9.38709
▁video	-9.38931
▁black	-9.39292
▁third	-9.39374
▁life	-9.40375
▁death	-9.4082
▁if	-9.40829
▁now	-9.40924
▁division	-9.41098
▁day	-9.41348
▁receiv	-9.41971
▁role	-9.4281
▁road	-9.42941
▁famil	-9.42995
other	-9.43624
▁apri	-9.43716
▁reach	-9.43912
rote	-9.44129
▁janu	-9.4431
▁won	-9.44432
▁feature	-9.45281
▁just	-9.45405
▁left	-9.45665
▁set	-9.46008
▁attempt	-9.46268
▁took	-9.46611
g	-9.46768
▁allow	-9.46848
ship	-9.47135
▁direct	-9.47274
very	-9.47388
▁york	-9.47675
▁previous	-9.48106
▁design	-9.48246
▁common	-9.48594
more	-9.48958
▁public	-9.50241
▁specie	-9.50304
▁engl	-9.50396
wood	-9.50626
▁event	-9.50853
▁become	-9.51049
▁month	-9.51341
▁even	-9.51429
me	-9.51513
▁times	-9.5162
▁buil	-9.51859
▁own	-9.52218
f	-9.52232
thing	-9.52297
▁mov	-9.5257
▁position	-9.52974
▁do	-9.53725
▁perform	-9.54023
▁universit	-9.54497
▁book	-9.54808
▁period	-9.54975
▁among	-9.55155
▁local	-9.55298
▁further	-9.55322
▁base	-9.55358
▁love	-9.55524
z	-9.55539
2	-9.55634
▁complete	-9.5688
▁make	-9.57003
red	-9.57093
▁describ	-9.57344
▁next	-9.57456
▁live	-9.57556
▁star	-9.57633
▁we	-9.57909
▁service	-9.58324
▁top	-9.58522
▁park	-9.58604
▁route	-9.58862
▁building	-9.58959
▁still	-9.59091
ren	-9.59162
▁develop	-9.59319
▁septe	-9.59545
line	-9.60006
▁close	-9.60255
▁hurricane	-9.60262
one	-9.60673
▁young	-9.60674
▁similar	-9.61178
all	-9.61292
▁site	-9.61319
ation	-9.61462
▁water	-9.615
▁old	-9.61809
▁review	-9.62107
▁often	-9.6218
side	-9.62207
▁version	-9.62332
▁air	-9.6241
▁every	-9.62593
▁songs	-9.6266
ness	-9.62893
▁tropic	-9.64025
▁change	-9.64086
▁operation	-9.6412
▁damage	-9.64513
▁establish	-9.64686
▁go	-9.64873
x	-9.64944
▁publish	-9.65165
▁present	-9.65256
▁level	-9.65463
▁few	-9.65994
▁move	-9.66299
▁c	-9.66341
▁battalion	-9.66385
▁ship	-9.66397
ritten	-9.66728
▁run	-9.67006
▁help	-9.67069
▁international	-9.6713
▁tour	-9.6714
▁want	-9.67517
▁english	-9.67525
▁project	-9.67836
re	-9.68065
▁list	-9.68098
▁production	-9.68454
ther	-9.68483
▁fire	-9.68583
▁french	-9.68642
▁total	-9.68674
field	-9.69221
be	-9.69501
▁militar	-9.70063
▁contain	-9.70102
▁never	-9.70419
▁pass	-9.7071
u	-9.70894
▁performance	-9.71143
▁power	-9.71174
town	-9.71829
▁official	-9.71931
▁former	-9.71935
▁take	-9.72083
▁track	-9.7212
▁white	-9.72548
▁county	-9.73019
▁per	-9.7382
▁line	-9.7383
▁turn	-9.73917
▁hav	-9.74766
▁say	-9.7501
▁control	-9.75164
men	-9.75222
▁population	-9.75368
k	-9.75496
▁increase	-9.75519
▁rock	-9.75548
▁suggest	-9.75681
▁days	-9.75832
▁claim	-9.76146
▁held	-9.76524
▁particular	-9.7654
▁act	-9.76821
te	-9.76968
▁different	-9.77024
stead	-9.77363
▁issue	-9.77385
▁light	-9.77824
way	-9.77841
▁continue	-9.77913
▁histor	-9.78334
ebru	-9.78362
▁human	-9.7845
▁career	-9.78665
▁lost	-9.7908
▁good	-9.79157
▁kill	-9.79244
▁chart	-9.79285
▁highway	-9.7942
▁southern	-9.7946
▁half	-9.79487
ty	-9.79644
▁defeat	-9.79673
▁country	-9.80171
away	-9.80579
low	-9.80695
▁house	-9.80838
▁band	-9.8095
▁little	-9.80952
▁members	-9.81175
▁reported	-9.81378
▁writing	-9.81605
▁region	-9.819
▁dylan	-9.82182
▁strong	-9.8239
▁televis	-9.82658
▁match	-9.82772
▁ii	-9.83029
▁releas	-9.83241
▁ju	-9.8371
▁critic	-9.83713
▁president	-9.83903
gave	-9.84009
▁real	-9.84282
once	-9.84441
given	-9.84569
▁northern	-9.84899
▁center	-9.84939
▁full	-9.84958
▁bas	-9.85017
▁initial	-9.85096
▁continu	-9.85289
3	-9.85386
read	-9.85979
▁central	-9.86017
▁god	-9.86337
house	-9.86357
▁brigade	-9.87156
▁popular	-9.87327
▁re	-9.87397
▁fee	-9.87689
▁japan	-9.87844
well	-9.87963
▁development	-9.87993
▁element	-9.88074
ma	-9.88422
▁produc	-9.88439
seen	-9.89065
▁female	-9.89468
▁plan	-9.89499
▁novel	-9.89568
▁eastern	-9.89705
▁america	-9.90076
▁royal	-9.9018
▁finish	-9.90211
using	-9.90294
▁provide	-9.90549
across	-9.91676
▁appearance	-9.91765
▁street	-9.91791
▁thought	-9.91838
▁modern	-9.91946
▁coast	-9.91965
head	-9.91968
▁australian	-9.92124
▁writer	-9.92349
▁eventual	-9.92473
ra	-9.92484
▁enter	-9.92551
▁mak	-9.92624
ive	-9.92692
▁action	-9.92858
▁battle	-9.92977
▁style	-9.93023
▁post	-9.93144
▁story	-9.93435
▁nove	-9.93454
▁sea	-9.93927
▁see	-9.94138
▁championship	-9.94262
▁scene	-9.94299
▁term	-9.94602
▁law	-9.94679
▁father	-9.94712
▁toward	-9.95044
▁train	-9.95213
her	-9.95269
ers	-9.953
▁cover	-9.95453
▁dec	-9.95621
▁station	-9.95678
▁hour	-9.95797
el	-9.95824
▁date	-9.95935
▁earlie	-9.95936
▁win	-9.96192
▁various	-9.96243
▁men	-9.96255
▁command	-9.96307
▁peak	-9.96804
▁scor	-9.9706
▁western	-9.97258
ism	-9.97301
▁died	-9.97324
▁describe	-9.9733
ese	-9.97528
▁london	-9.97755
▁mid	-9.97925
ous	-9.97981
hose	-9.98189
b	-9.98201
ally	-9.98518
▁free	-9.98684
▁join	-9.98699
▁case	-9.98981
▁significant	-9.9904
w	-9.99064
▁minute	-9.99297
▁kingdom	-9.99552
▁construction	-10.0008
▁director	-10.0026
▁miles	-10.0048
▁guitar	-10.0085
▁successful	-10.0085
hind	-10.0092
▁important	-10.0093
▁australia	-10.0106
▁football	-10.0119
▁care	-10.012
▁need	-10.0142
▁sever	-10.0169
upon	-10.0189
▁grand	-10.019
▁success	-10.0215
formation	-10.0228
▁discover	-10.0231
▁hero	-10.024
▁cup	-10.0245
▁body	-10.0257
▁does	-10.0277
▁victor	-10.0283
spite	-10.0293
▁james	-10.0298
▁political	-10.0314
▁mean	-10.0319
▁king	-10.0356
▁felt	-10.0401
▁interest	-10.0416
▁too	-10.0427
▁sign	-10.0433
▁right	-10.044
▁range	-10.0463
▁look	-10.0466
time	-10.0513
▁stage	-10.052
▁bird	-10.0524
▁way	-10.0526
se	-10.0532
▁example	-10.0536
▁add	-10.0545
▁court	-10.056
▁brown	-10.0565
▁poem	-10.0624
▁should	-10.0664
▁male	-10.0669
▁noted	-10.0671
▁effect	-10.0707
▁recording	-10.0708
while	-10.0761
▁women	-10.0793
▁campaign	-10.0794
▁score	-10.0802
taken	-10.0838
▁sent	-10.0839
▁village	-10.0895
▁come	-10.0897
▁class	-10.0921
▁entire	-10.0923
▁mother	-10.0951
▁represent	-10.0959
▁creat	-10.0984
▁report	-10.0997
nd	-10.1043
▁car	-10.1044
▁heavy	-10.1048
▁give	-10.1051
▁gold	-10.1064
▁debut	-10.1106
▁magazine	-10.1151
▁influence	-10.118
▁communit	-10.1207
▁face	-10.1211
where	-10.1228
▁difficult	-10.1252
▁far	-10.1257
ose	-10.1314
▁went	-10.133
▁visit	-10.1336
tv	-10.1387
▁goal	-10.1404
v	-10.1426
▁fight	-10.1427
▁condom	-10.143
▁forest	-10.1433
▁stars	-10.1469
do	-10.1471
no	-10.1498
▁additional	-10.1535
▁race	-10.1543
▁protein	-10.1558
▁structure	-10.1569
▁mix	-10.1571
▁addition	-10.1574
▁mount	-10.1576
▁program	-10.1581
▁my	-10.1632
▁loss	-10.1639
era	-10.1666
▁jul	-10.1675
over	-10.1678
▁experience	-10.1678
ither	-10.1681
▁guns	-10.1698
▁fourth	-10.1706
coming	-10.1715
▁individual	-10.1733
ny	-10.1733
▁led	-10.1739
▁wife	-10.1755
▁party	-10.1802
▁study	-10.1819
ne	-10.1839
▁born	-10.1845
ford	-10.1854
▁david	-10.1859
co	-10.1882
▁artist	-10.1889
served	-10.1895
▁manager	-10.1911
▁exist	-10.193
▁night	-10.1949
▁office	-10.1949
▁figure	-10.2014
▁aircraft	-10.2017
are	-10.206
▁toge	-10.2069
▁france	-10.2075
▁robert	-10.2077
▁nation	-10.2078
▁subsequent	-10.208
▁super	-10.2085
▁ft	-10.2103
▁problem	-10.2112
▁believe	-10.2129
▁fleet	-10.2142
▁locat	-10.2162
▁section	-10.2193
▁clear	-10.2209
▁process	-10.2224
▁port	-10.2236
▁association	-10.2242
▁ear	-10.2245
▁european	-10.2278
▁comment	-10.2284
▁relationship	-10.2288
▁image	-10.231
▁roman	-10.233
king	-10.2347
▁wall	-10.2357
▁soon	-10.2358
▁works	-10.236
▁wide	-10.2361
led	-10.2368
▁source	-10.2385
▁europe	-10.2395
▁art	-10.2409
▁rule	-10.2414
was	-10.2427
▁language	-10.2439
▁begin	-10.2444
▁receive	-10.2451
▁decided	-10.246
▁consist	-10.2469
▁regiment	-10.2472
▁cross	-10.2495
▁flight	-10.2506
▁engineer	-10.2508
▁front	-10.2519
▁view	-10.2522
▁special	-10.2535
▁create	-10.254
▁member	-10.2543
▁voice	-10.2556
▁council	-10.2572
▁business	-10.2572
▁put	-10.2605
▁shot	-10.2608
▁current	-10.2626
▁brought	-10.264
▁destroy	-10.2647
▁sold	-10.2666
▁regular	-10.2674
▁regard	-10.2674
▁depression	-10.2674
ham	-10.2678
▁idea	-10.2679
▁tree	-10.2688
▁featur	-10.2691
white	-10.2706
▁industr	-10.2708
▁person	-10.2718
wide	-10.2731
mont	-10.276
▁federer	-10.2776
ought	-10.2785
▁blue	-10.2789
ground	-10.2802
▁side	-10.2805
▁mountain	-10.2808
▁outside	-10.2809
▁produce	-10.2812
▁opening	-10.286
ley	-10.2911
▁territor	-10.2917
de	-10.2918
▁flood	-10.2947
▁george	-10.295
▁stor	-10.2965
▁wales	-10.2987
▁activit	-10.299
▁stay	-10.3022
▁winds	-10.3032
▁william	-10.3037
ball	-10.3066
▁commercial	-10.3071
ie	-10.3075
▁parliament	-10.308
ical	-10.3086
▁radio	-10.3094
up	-10.3113
▁summer	-10.3117
▁competition	-10.3125
▁commander	-10.316
▁sun	-10.3165
▁jordan	-10.3185
▁police	-10.3213
▁evidence	-10.3234
▁grow	-10.3242
▁manage	-10.3243
▁bill	-10.3257
▁producer	-10.3265
▁reveal	-10.3268
▁middle	-10.3323
▁societ	-10.3348
▁troops	-10.3354
▁average	-10.3366
▁creek	-10.3377
▁authorit	-10.3404
▁accept	-10.3408
▁vocal	-10.3413
▁possible	-10.3417
▁working	-10.3427
▁announc	-10.343
▁rest	-10.3439
▁crew	-10.3444
▁research	-10.3448
▁christian	-10.3451
▁find	-10.3455
▁limit	-10.3476
▁tech	-10.3489
▁type	-10.3492
stone	-10.3495
for	-10.3496
▁sometime	-10.3509
▁bay	-10.3519
▁mark	-10.353
▁sept	-10.3537
▁contract	-10.3556
▁network	-10.3561
▁safe	-10.362
▁launch	-10.3621
▁actor	-10.3622
▁travel	-10.3631
▁infantry	-10.3635
▁cell	-10.3661
▁town	-10.3667
▁quick	-10.3673
▁florida	-10.3673
ance	-10.3673
▁learn	-10.3674
▁machine	-10.3677
▁lack	-10.3679
▁yards	-10.3705
▁missouri	-10.371
▁test	-10.3714
▁atlantic	-10.3719
▁get	-10.3725
▁captain	-10.3748
▁effort	-10.3748
▁size	-10.3761
▁account	-10.3785
▁concert	-10.3786
▁material	-10.3786
▁capital	-10.3792
▁leave	-10.3816
port	-10.3821
▁transport	-10.3842
▁lower	-10.3849
▁extend	-10.3919
▁k	-10.3923
▁studio	-10.3927
▁reason	-10.3937
▁temple	-10.3943
▁whom	-10.396
▁fort	-10.3963
▁length	-10.3978
▁nav	-10.3979
▁dam	-10.3985
mph	-10.3996
lly	-10.3998
▁conduct	-10.4005
▁provid	-10.4009
▁prior	-10.4015
▁brother	-10.4021
▁met	-10.4036
▁co	-10.4045
ium	-10.405
▁location	-10.4053
▁above	-10.4055
▁sound	-10.4061
▁offer	-10.4076
▁studie	-10.41
▁miss	-10.4116
▁plann	-10.4121
▁horse	-10.4125
▁ask	-10.4127
▁head	-10.4133
▁college	-10.4133
▁gun	-10.4135
▁advance	-10.4146
▁non	-10.415
▁food	-10.4158
▁dece	-10.416
▁fail	-10.417
▁positive	-10.4173
▁recent	-10.4173
▁condition	-10.4173
▁deal	-10.4176
▁centre	-10.4177
▁decision	-10.42
▁letter	-10.4217
▁cast	-10.4229
new	-10.4231
▁native	-10.4252
▁pre	-10.4261
▁los	-10.4284
thus	-10.4319
▁hand	-10.4323
▁indian	-10.4329
▁poor	-10.433
▁probabl	-10.4335
▁social	-10.4353
▁usual	-10.4359
ves	-10.4361
▁earth	-10.4366
▁maintain	-10.4372
▁yard	-10.4417
▁fly	-10.4431
▁girl	-10.4439
▁approximate	-10.4454
▁approach	-10.4458
▁hall	-10.4462
▁theme	-10.4464
▁standard	-10.4467
▁stat	-10.4477
▁museum	-10.4499
▁separate	-10.4521
cy	-10.4528
irel	-10.4532
▁immediate	-10.4534
▁space	-10.4569
▁religious	-10.4575
ian	-10.4587
▁green	-10.4602
▁p	-10.4603
pent	-10.4605
▁commission	-10.4616
▁mexico	-10.4616
▁break	-10.4626
not	-10.4633
▁construct	-10.4634
▁oldham	-10.4659
▁taking	-10.4664
▁treat	-10.4695
▁certain	-10.4699
5	-10.471
▁beginning	-10.4741
▁olivier	-10.4741
ine	-10.4762
▁past	-10.4771
4	-10.4779
▁squadron	-10.4783
▁referr	-10.4784
▁charge	-10.4787
▁draw	-10.4787
▁tower	-10.4793
am	-10.4811
▁typical	-10.4814
▁prevent	-10.4825
▁explain	-10.4825
▁increasing	-10.4825
▁broke	-10.4843
▁fund	-10.4845
▁goals	-10.4858
▁hit	-10.4888
old	-10.4893
p	-10.4908
▁bowl	-10.4914
▁pressure	-10.4918
ve	-10.4926
▁ground	-10.4929
▁availab	-10.4937
▁field	-10.4941
ro	-10.495
▁michael	-10.4952
▁fifth	-10.4953
▁movement	-10.4954
▁resident	-10.4955
▁paul	-10.4966
▁caus	-10.4972
▁interview	-10.4972
▁appoint	-10.4973
▁must	-10.4975
▁nov	-10.4987
▁believ	-10.499
▁specific	-10.4992
▁canadian	-10.4995
▁canada	-10.5007
pole	-10.5019
▁saint	-10.5021
▁metre	-10.5022
▁airport	-10.5039
▁minor	-10.5068
▁cost	-10.5075
▁india	-10.5085
iii	-10.5097
▁forward	-10.5103
▁henry	-10.5107
▁professional	-10.5121
▁vietnam	-10.5124
▁display	-10.5124
▁critical	-10.5135
▁surface	-10.5136
▁write	-10.5136
▁pitch	-10.5141
▁involv	-10.5149
water	-10.5154
▁peter	-10.5158
les	-10.5169
▁election	-10.5169
▁detail	-10.5169
▁relative	-10.517
▁coach	-10.5191
back	-10.5205
▁press	-10.5228
rd	-10.5232
▁pacific	-10.5243
▁assembl	-10.5243
▁foot	-10.5243
▁gain	-10.5244
▁friend	-10.5249
▁poet	-10.5251
▁especia	-10.5255
▁animal	-10.5255
▁students	-10.5257
▁winning	-10.5281
▁thomas	-10.5299
with	-10.5309
▁soldier	-10.5311
▁arriv	-10.5316
ville	-10.5317
▁grant	-10.5329
▁cathedral	-10.5343
▁organization	-10.5344
que	-10.5377
▁friends	-10.5384
▁private	-10.5388
▁wheeler	-10.5397
▁overall	-10.5402
▁injur	-10.5416
latter	-10.5433
▁collection	-10.5434
▁deep	-10.5449
▁focus	-10.5462
▁africa	-10.5464
▁leg	-10.5466
▁education	-10.5507
chines	-10.5508
▁trade	-10.5516
use	-10.5519
▁hill	-10.5528
▁introduc	-10.5537
▁capture	-10.5554
▁color	-10.5555
▁occurr	-10.5559
▁saw	-10.5559
▁response	-10.5567
▁department	-10.5568
▁anti	-10.5588
▁mention	-10.5604
▁told	-10.561
larger	-10.561
ri	-10.5613
▁might	-10.5613
▁prais	-10.5615
▁irish	-10.5626
notes	-10.5628
▁boat	-10.5646
▁villa	-10.5647
▁musical	-10.5647
▁subject	-10.5671
▁save	-10.5686
▁18	-10.5688
ke	-10.5694
▁billboard	-10.5705
▁host	-10.573
▁link	-10.5741
▁civil	-10.5747
▁catholic	-10.575
▁rapid	-10.5751
spread	-10.5754
▁nam	-10.5754
der	-10.578
▁meeting	-10.578
▁futur	-10.5792
▁nature	-10.5797
▁master	-10.5813
▁count	-10.5815
▁replac	-10.5826
after	-10.5855
▁broadcast	-10.5866
▁rank	-10.5882
▁daughter	-10.589
▁dark	-10.5896
his	-10.5899
▁science	-10.5918
ory	-10.5931
▁heavi	-10.5938
▁model	-10.5939
▁better	-10.5951
▁fox	-10.5982
▁defence	-10.5984
▁chose	-10.6022
▁word	-10.6026
▁mary	-10.6028
▁select	-10.6033
▁historical	-10.6038
▁quarter	-10.6041
▁concern	-10.6043
▁san	-10.605
1	-10.6051
▁hard	-10.6053
▁brita	-10.606
▁seem	-10.6065
▁media	-10.6078
▁money	-10.6079
▁cyclone	-10.608
shows	-10.6083
▁running	-10.6096
▁mass	-10.6099
▁sister	-10.6106
▁attend	-10.6121
ful	-10.6125
var	-10.6128
▁intend	-10.613
▁know	-10.6151
▁dead	-10.6152
den	-10.6172
▁watch	-10.618
▁agree	-10.6191
▁arab	-10.6205
▁express	-10.6209
▁assign	-10.6226
▁fact	-10.6231
▁lake	-10.6248
▁upper	-10.6257
▁square	-10.6274
▁gods	-10.6281
▁names	-10.6302
▁involve	-10.6306
▁rare	-10.6319
xenon	-10.6321
▁fall	-10.6333
▁practice	-10.6344
6	-10.6361
▁district	-10.6364
▁headquarter	-10.637
▁charles	-10.6371
▁du	-10.6374
shore	-10.6403
▁batter	-10.6405
▁earn	-10.6417
▁traditional	-10.6419
▁piece	-10.6421
▁key	-10.6438
▁slow	-10.6439
▁stone	-10.6457
▁big	-10.6459
▁affect	-10.6462
alway	-10.6463
la	-10.6466
▁deliver	-10.6469
▁valley	-10.6469
▁living	-10.6519
▁staff	-10.6519
▁lyric	-10.653
▁reference	-10.6532
et	-10.6538
▁independent	-10.6572
▁got	-10.6577
un	-10.6594
▁bring	-10.6596
▁sub	-10.6601
▁leav	-10.6611
▁zealand	-10.6626
▁remov	-10.6663
▁depict	-10.6666
▁contemporar	-10.6669
▁primar	-10.6679
msel	-10.6684
▁meet	-10.6689
▁serve	-10.6691
▁ocean	-10.6692
▁cm	-10.67
▁connect	-10.6703
achel	-10.6717
▁olympic	-10.672
board	-10.6732
▁blood	-10.6741
▁hot	-10.6742
▁double	-10.6745
burn	-10.6756
▁personal	-10.677
▁traffic	-10.6771
▁suffer	-10.6774
ial	-10.6776
▁sequence	-10.6777
▁teams	-10.6808
▁haifa	-10.6816
▁lines	-10.6819
▁parent	-10.6822
▁require	-10.6838
▁drive	-10.6862
▁woman	-10.6868
▁border	-10.6871
▁audience	-10.6874
▁health	-10.6874
my	-10.6878
▁beyon	-10.6913
▁morning	-10.6926
▁share	-10.6928
▁pay	-10.6929
na	-10.6933
▁occur	-10.6935
▁jack	-10.6935
▁meaning	-10.6936
▁camp	-10.6938
▁nor	-10.694
▁variet	-10.6942
▁edge	-10.6942
▁compar	-10.6962
▁employ	-10.7012
▁actual	-10.7024
▁decade	-10.7032
▁scott	-10.7065
▁hospital	-10.7078
▁galveston	-10.7082
▁chief	-10.7082
▁distance	-10.7084
chester	-10.7093
▁books	-10.7115
▁tournament	-10.7135
truck	-10.7138
ch	-10.7139
don	-10.7148
tic	-10.7153
stream	-10.7168
▁newspaper	-10.7189
▁ancient	-10.7189
▁wave	-10.7212
▁mm	-10.7215
▁moment	-10.7219
▁protect	-10.7239
▁breed	-10.7241
▁union	-10.7251
▁brief	-10.7261
▁pair	-10.7267
▁adult	-10.7272
▁ma	-10.7275
▁plant	-10.728
▁shape	-10.7282
▁archaeolog	-10.7284
▁related	-10.7295
companie	-10.7296
▁effective	-10.7297
▁market	-10.7301
craft	-10.7302
▁author	-10.7306
▁fans	-10.7333
go	-10.7345
é	-10.7348
▁defense	-10.735
▁festival	-10.735
▁marriage	-10.7351
▁mission	-10.7353
▁throw	-10.736
▁cricket	-10.7361
▁respective	-10.7387
▁metal	-10.7399
▁request	-10.7404
▁scientology	-10.7406
80	-10.741
▁films	-10.7422
so	-10.7448
▁california	-10.7454
▁officers	-10.7456
▁conference	-10.7459
▁credit	-10.746
▁whole	-10.746
▁historian	-10.7461
▁polish	-10.7472
▁painting	-10.7476
▁lea	-10.7497
▁runs	-10.7509
▁artillery	-10.7514
▁african	-10.7526
▁movie	-10.7528
▁burns	-10.7547
▁situation	-10.757
▁makes	-10.7609
▁sexual	-10.7623
▁conflict	-10.7625
▁culture	-10.7641
▁numero	-10.765
▁jin	-10.7658
▁annual	-10.766
▁honor	-10.766
▁question	-10.7681
▁bridge	-10.7701
▁complet	-10.7714
▁true	-10.7723
▁empire	-10.7737
▁yet	-10.7748
▁rate	-10.7749
▁uk	-10.7749
▁leas	-10.777
ai	-10.7776
▁comed	-10.78
▁tradition	-10.7812
▁wal	-10.7815
▁inside	-10.7817
▁complex	-10.785
▁cit	-10.7873
▁alice	-10.7881
stein	-10.7883
bodies	-10.7884
▁richard	-10.7891
▁chicago	-10.7903
▁adopt	-10.7905
▁jewish	-10.7908
▁your	-10.7923
▁slight	-10.7951
▁serious	-10.7965
▁dollar	-10.7965
▁iron	-10.7968
own	-10.7972
▁tell	-10.7981
▁low	-10.7994
▁opera	-10.8003
▁talk	-10.8009
com	-10.8016
aught	-10.802
▁mosley	-10.8022
▁sixth	-10.8023
▁think	-10.8049
▁statu	-10.8053
▁defend	-10.8054
▁committee	-10.8063
▁j	-10.8071
▁recover	-10.8084
▁secret	-10.8096
gun	-10.8126
▁latin	-10.8139
▁protest	-10.8156
▁texa	-10.8159
▁simon	-10.8164
ia	-10.818
▁yellow	-10.8198
giving	-10.8198
▁spring	-10.8204
▁carolina	-10.8206
nough	-10.8209
abilit	-10.8209
▁husband	-10.8234
▁republic	-10.8235
▁prince	-10.8241
▁scale	-10.8241
▁minister	-10.8251
▁fruit	-10.8252
▁edition	-10.8281
hou	-10.8286
▁perfect	-10.8316
▁frequent	-10.8316
▁wound	-10.8327
▁queen	-10.8333
▁beach	-10.8335
▁replace	-10.8338
▁leader	-10.8362
▁crown	-10.8369
▁potential	-10.8376
▁expand	-10.8377
▁news	-10.8383
▁meant	-10.8386
▁academ	-10.8393
ka	-10.8394
▁script	-10.8404
▁ran	-10.8419
▁speak	-10.842
▁propert	-10.8428
▁piano	-10.8437
▁baby	-10.844
panish	-10.8443
its	-10.8449
▁lady	-10.848
▁italian	-10.8484
j	-10.849
▁speed	-10.8491
▁done	-10.8492
▁search	-10.8505
aylor	-10.8507
ter	-10.8518
▁room	-10.8523
ire	-10.8527
▁method	-10.8529
▁nix	-10.8532
▁severe	-10.8534
▁estimat	-10.8541
▁landing	-10.8543
▁premier	-10.8547
tons	-10.8547
▁litera	-10.8549
▁measure	-10.8557
▁boy	-10.859
▁keep	-10.8593
▁operate	-10.8598
▁corps	-10.8615
▁unlike	-10.8617
▁concept	-10.8618
▁demand	-10.8623
▁reviewer	-10.8653
ota	-10.8658
lay	-10.8665
▁bond	-10.8676
▁disease	-10.8681
▁target	-10.8681
▁volume	-10.8681
▁captur	-10.87
play	-10.8702
▁fell	-10.8704
▁bad	-10.8719
▁sport	-10.8725
▁escape	-10.8728
▁wind	-10.8732
▁flow	-10.8739
▁rosebery	-10.8743
▁theatre	-10.8744
▁via	-10.8748
▁tracks	-10.8759
▁settlement	-10.876
▁avoid	-10.8768
▁natural	-10.877
▁paper	-10.8776
▁presen	-10.8776
▁reduc	-10.8787
▁am	-10.8794
▁inter	-10.8804
▁combat	-10.8808
▁qualit	-10.8817
▁transit	-10.8824
body	-10.8828
off	-10.8843
▁access	-10.8847
▁ball	-10.8861
like	-10.8863
▁computer	-10.8866
▁monument	-10.8869
▁christmas	-10.8869
▁aspect	-10.8869
▁rais	-10.8881
▁couple	-10.8882
▁frank	-10.8886
worth	-10.8886
▁offensive	-10.8895
rset	-10.8905
▁virginia	-10.8915
▁hair	-10.8926
▁cougar	-10.8932
▁emperor	-10.8932
▁touchdown	-10.8932
▁federal	-10.8932
▁enjoy	-10.8932
▁channel	-10.8943
▁copie	-10.8951
▁amount	-10.896
▁extra	-10.8977
▁ross	-10.8991
▁abandon	-10.8995
▁relief	-10.8996
▁jane	-10.9002
50	-10.9004
▁observ	-10.9011
iami	-10.9016
▁trial	-10.9028
▁anderson	-10.9029
▁alkan	-10.903
▁requir	-10.9042
▁cut	-10.9048
ool	-10.9051
▁paris	-10.9058
▁reject	-10.9058
▁percent	-10.9059
▁window	-10.906
▁marine	-10.9074
▁estimate	-10.9075
▁feeling	-10.9093
▁feel	-10.9093
life	-10.9097
hanna	-10.9104
usch	-10.9105
▁temperature	-10.9124
▁ultimate	-10.9131
▁officer	-10.9132
▁document	-10.9145
▁castle	-10.9156
▁discuss	-10.9158
▁wor	-10.9162
▁hold	-10.9172
ti	-10.9189
▁braathen	-10.9189
▁pennsylvania	-10.9189
▁task	-10.919
▁powerful	-10.919
▁reaction	-10.919
bury	-10.9193
▁soviet	-10.9193
▁mile	-10.9204
▁sir	-10.9206
▁colon	-10.9206
drew	-10.9216
▁portion	-10.9219
▁value	-10.9223
▁sentence	-10.9228
▁elect	-10.9247
▁seat	-10.9248
▁weapon	-10.9252
▁minne	-10.9253
▁jackson	-10.9256
▁silver	-10.9257
▁fish	-10.9257
▁promotion	-10.926
▁pick	-10.9265
▁governor	-10.9266
▁casualt	-10.9271
hether	-10.9275
▁hop	-10.928
▁liverp	-10.9284
▁mi	-10.9285
▁compos	-10.9286
▁pop	-10.929
what	-10.9292
▁rating	-10.9301
ney	-10.9309
▁engine	-10.9312
▁fiction	-10.9313
▁northeast	-10.9317
▁progress	-10.9317
▁financial	-10.932
▁kakapo	-10.932
▁branch	-10.9325
▁worker	-10.9328
▁publication	-10.9328
▁chang	-10.9333
▁collect	-10.9334
▁birth	-10.9355
▁energ	-10.9357
30	-10.9361
▁legal	-10.9368
fall	-10.9382
▁enem	-10.9385
90	-10.9387
▁responsibl	-10.9387
down	-10.9393
▁fear	-10.9395
▁foundation	-10.9395
▁marri	-10.9398
▁direction	-10.9404
admi	-10.9406
▁countr	-10.9414
▁build	-10.9418
▁eye	-10.9429
▁fill	-10.9431
▁chris	-10.9433
aware	-10.9435
▁deit	-10.9448
▁reflect	-10.945
▁bishop	-10.9453
▁degree	-10.9453
▁stadium	-10.9453
▁townsend	-10.9453
▁assault	-10.9454
▁weaken	-10.9455
▁factor	-10.9473
▁strength	-10.9479
▁majorit	-10.9485
▁soundtrack	-10.9521
▁declar	-10.9527
60	-10.9531
▁planet	-10.9536
▁memor	-10.954
ea	-10.9563
▁genus	-10.9614
▁cap	-10.9627
▁phil	-10.9633
▁pro	-10.9637
ist	-10.9637
▁session	-10.9656
▁egyptian	-10.9656
▁carry	-10.9665
▁nicole	-10.967
▁turk	-10.9694
▁coin	-10.9695
▁guide	-10.9699
▁plot	-10.9699
▁fac	-10.9722
▁louis	-10.9725
▁opportunit	-10.9726
▁extreme	-10.974
▁rain	-10.9746
ward	-10.9758
▁appeal	-10.9761
▁refus	-10.9762
▁propos	-10.9766
▁specimen	-10.9794
▁chapter	-10.9794
▁ottoman	-10.9794
▁reign	-10.9794
▁hotel	-10.9796
if	-10.9797
▁inspir	-10.9798
specie	-10.98
▁brad	-10.9803
▁naval	-10.9805
▁winter	-10.9807
ar	-10.9812
▁indicate	-10.983
▁sales	-10.9851
▁vehicle	-10.9863
▁scot	-10.9866
▁rear	-10.9869
▁facilit	-10.9908
air	-10.9908
▁physical	-10.9915
▁matche	-10.9919
▁stop	-10.992
▁primari	-10.9925
▁advantage	-10.9933
tory	-10.9948
▁comic	-10.9948
▁weather	-10.9949
▁cultural	-10.9967
▁confirm	-10.9976
anasi	-10.9981
▁content	-10.9992
union	-10.9999
you	-11.0003
▁executive	-11.0004
▁attention	-11.0004
▁crowd	-11.0009
▁pilot	-11.0009
▁matter	-11.0013
▁singer	-11.0023
▁purpose	-11.003
▁northwest	-11.004
sets	-11.0053
▁fami	-11.0064
▁shiva	-11.007
▁hear	-11.0084
▁extensive	-11.0092
▁surrounding	-11.0095
▁wild	-11.0101
▁decline	-11.0106
▁lord	-11.0111
▁normal	-11.0114
▁intens	-11.0132
▁hands	-11.0136
▁kind	-11.0143
▁marked	-11.0145
▁domestic	-11.0146
▁antimony	-11.0146
▁spain	-11.0146
án	-11.0175
ant	-11.0175
expected	-11.0177
▁draft	-11.0188
▁impact	-11.0218
▁transferr	-11.0219
▁rise	-11.0224
layer	-11.0234
ang	-11.0279
▁yue	-11.0285
▁meyerbeer	-11.029
▁survey	-11.029
▁tail	-11.0291
▁prominent	-11.0291
▁johnson	-11.0297
▁surviv	-11.0301
▁fey	-11.0305
da	-11.0322
▁murder	-11.035
▁praise	-11.036
▁athletic	-11.0363
▁website	-11.0363
▁hamel	-11.0366
▁digital	-11.0366
▁nest	-11.037
▁agent	-11.0371
ending	-11.0376
▁institution	-11.039
▁colour	-11.0404
ten	-11.0414
▁economic	-11.0418
▁despi	-11.0423
▁bass	-11.0423
▁twic	-11.0431
▁independen	-11.0431
▁portray	-11.0431
▁priest	-11.0437
▁guest	-11.0437
music	-11.0439
▁course	-11.0458
▁data	-11.0459
▁takes	-11.0466
some	-11.0473
▁securit	-11.0481
▁job	-11.0485
▁destroyer	-11.0494
▁oppos	-11.0494
ster	-11.0496
▁trail	-11.0497
ler	-11.0501
▁sustain	-11.0503
▁except	-11.0508
▁athlete	-11.0511
▁actress	-11.0511
▁contact	-11.0511
cake	-11.0512
▁background	-11.0513
▁prime	-11.0514
▁store	-11.0536
▁therefor	-11.0544
▁text	-11.056
▁china	-11.0576
▁walk	-11.0577
▁box	-11.0583
▁entrance	-11.0585
▁fit	-11.0586
▁succeed	-11.0586
▁freeway	-11.0588
▁push	-11.0599
wise	-11.0599
ha	-11.0601
▁hope	-11.0616
kare	-11.0617
ington	-11.0618
▁arrive	-11.0622
▁nuclea	-11.0634
▁technolog	-11.0641
▁wear	-11.0659
min	-11.066
▁journey	-11.066
▁odaenath	-11.066
▁technique	-11.066
▁sarnia	-11.0661
▁retain	-11.0661
▁alaba	-11.0661
▁narrow	-11.0662
▁risk	-11.0662
hood	-11.0672
boy	-11.0675
▁heart	-11.068
▁acid	-11.0684
▁viewers	-11.0697
▁contrast	-11.0703
▁la	-11.0705
▁controll	-11.0705
▁associat	-11.0719
imply	-11.0721
▁eva	-11.0723
▁rescue	-11.0731
▁entertainment	-11.0736
▁edward	-11.0738
▁bob	-11.0743
rights	-11.075
▁semi	-11.075
▁sense	-11.0797
70	-11.0808
▁rifle	-11.0811
▁opponent	-11.0813
▁province	-11.0813
▁visual	-11.0814
▁historic	-11.0821
▁bell	-11.0824
▁sports	-11.0833
▁respond	-11.0843
▁our	-11.086
from	-11.0868
▁tintin	-11.089
▁nesbitt	-11.089
▁portugues	-11.089
▁wilhelm	-11.089
▁starling	-11.089
angeles	-11.0891
▁multi	-11.0892
▁delay	-11.0897
▁institute	-11.09
▁jump	-11.0926
▁foreign	-11.0933
▁occasional	-11.0949
▁jam	-11.0949
▁object	-11.0954
▁chance	-11.0957
▁barrow	-11.0962
▁words	-11.0965
▁welsh	-11.0967
▁perón	-11.0967
▁pattern	-11.0968
▁canno	-11.0974
▁partial	-11.0975
fensive	-11.0987
▁illinois	-11.099
▁apple	-11.0993
▁item	-11.0994
▁canal	-11.1011
season	-11.1023
▁function	-11.1028
wealth	-11.104
▁student	-11.1042
▁bar	-11.1042
ta	-11.1044
▁vessel	-11.1045
▁balti	-11.1052
ture	-11.1059
▁wing	-11.1063
▁beat	-11.1075
▁remix	-11.108
▁israel	-11.108
▁dance	-11.1084
live	-11.1104
tried	-11.1114
▁distinct	-11.1115
▁threat	-11.1121
▁height	-11.1121
▁convert	-11.1124
▁omaha	-11.1124
▁torre	-11.1125
▁ceres	-11.1129
▁creation	-11.1129
▁categor	-11.1139
▁dedicat	-11.1168
▁snow	-11.117
▁screen	-11.1173
rio	-11.1177
▁conclud	-11.1195
▁rug	-11.1195
▁adventure	-11.1199
▁thunderbird	-11.1203
▁permanent	-11.1203
▁campus	-11.1213
older	-11.1216
▁mogadish	-11.1222
had	-11.1228
▁armor	-11.1242
inches	-11.1248
non	-11.1254
long	-11.1254
▁dress	-11.1267
▁reform	-11.1284
▁stopp	-11.129
▁active	-11.1293
ring	-11.1308
▁label	-11.1335
▁cold	-11.1335
place	-11.1343
▁apparent	-11.135
▁helms	-11.1352
kovic	-11.1359
▁mccall	-11.1364
▁railway	-11.1365
▁agreement	-11.1365
vision	-11.1394
▁carrie	-11.1418
▁equip	-11.1422
▁oil	-11.1427
▁dog	-11.1434
▁golden	-11.1437
▁tale	-11.1438
▁attract	-11.1441
▁reduce	-11.1443
ice	-11.1444
▁composition	-11.1445
▁congress	-11.1445
▁joseph	-11.1448
▁happen	-11.1448
▁innis	-11.1455
hip	-11.1462
▁washing	-11.1465
▁lot	-11.1475
lie	-11.1479
▁trip	-11.1505
sky	-11.1509
▁dr	-11.1509
▁standing	-11.1515
▁maximu	-11.1518
▁fantas	-11.1525
▁unique	-11.1527
▁playstation	-11.1528
ts	-11.1528
▁opinion	-11.1528
▁challenge	-11.1532
▁plays	-11.1534
ill	-11.1534
▁studios	-11.1536
ather	-11.1555
▁van	-11.1558
▁origin	-11.1558
▁basi	-11.1572
▁vote	-11.1575
▁roll	-11.1579
▁tank	-11.158
▁mr	-11.1589
▁religion	-11.1602
▁kg	-11.1609
▁compound	-11.161
▁expedition	-11.161
▁generation	-11.1611
night	-11.1612
▁interchange	-11.1627
▁block	-11.1649
▁grew	-11.1661
▁argu	-11.1663
art	-11.1664
▁peace	-11.1669
▁sides	-11.1683
▁knowledge	-11.1693
▁depth	-11.1693
▁famous	-11.1693
▁flank	-11.1694
▁kent	-11.1696
▁drum	-11.1726
▁board	-11.1727
▁chapel	-11.173
▁combin	-11.1733
▁onto	-11.1768
▁simpson	-11.1777
▁failure	-11.1777
▁withdraw	-11.1784
▁solo	-11.179
try	-11.1812
dom	-11.1823
▁reserve	-11.183
ate	-11.183
▁sex	-11.1832
▁raise	-11.1855
▁dissipat	-11.1856
▁bank	-11.1861
▁consecutive	-11.1862
▁encounter	-11.1862
▁baseball	-11.1864
▁storyline	-11.1868
▁necessar	-11.1872
▁else	-11.1887
20	-11.1892
▁ga	-11.1897
▁fame	-11.19
▁lives	-11.1919
▁assist	-11.1923
▁outer	-11.1941
kept	-11.1945
▁cardinal	-11.1947
▁restaurant	-11.1947
▁representative	-11.1948
▁threaten	-11.1951
▁seven	-11.196
mouth	-11.1979
▁doing	-11.1997
▁phase	-11.2001
▁floor	-11.2008
▁horses	-11.2016
▁finding	-11.2024
▁desire	-11.2029
▁andrew	-11.203
▁greek	-11.2034
▁invasion	-11.2034
▁gradual	-11.2035
▁divine	-11.204
▁airline	-11.204
▁fung	-11.2046
▁cave	-11.2047
▁respect	-11.205
▁purchase	-11.2058
ated	-11.206
▁rough	-11.2066
ko	-11.2072
▁note	-11.2072
work	-11.2077
▁giant	-11.2077
▁craz	-11.2082
▁killing	-11.2083
▁fine	-11.2083
▁passe	-11.2101
ga	-11.2104
▁adapt	-11.2106
▁designat	-11.2106
▁possibl	-11.2112
▁carri	-11.2121
▁register	-11.2121
▁administration	-11.2121
▁jupiter	-11.2121
▁firm	-11.2122
▁orbit	-11.2126
ep	-11.2133
▁criticiz	-11.2135
ux	-11.2137
▁path	-11.2141
▁djed	-11.2151
tropic	-11.2157
▁thick	-11.216
▁fowle	-11.2165
▁map	-11.2168
▁kick	-11.2178
▁stand	-11.2185
▁obtain	-11.2208
adelphi	-11.2208
▁sector	-11.2209
▁medical	-11.2232
▁depend	-11.2243
stock	-11.2256
▁sr	-11.2258
ger	-11.2261
▁rose	-11.228
▁product	-11.2294
▁senior	-11.2297
▁landfall	-11.2298
▁alone	-11.2311
growth	-11.2311
7	-11.2311
▁core	-11.2322
▁serv	-11.2328
▁20	-11.2328
▁occupie	-11.233
▁types	-11.236
▁characteristic	-11.2364
▁refer	-11.2381
▁negative	-11.2386
▁bbc	-11.2386
▁civilian	-11.2388
▁observation	-11.239
▁strengthen	-11.239
▁spend	-11.2391
▁candidate	-11.2397
▁teaching	-11.2397
saw	-11.2399
▁feed	-11.2411
▁miner	-11.2412
▁teacher	-11.2422
ski	-11.2437
▁cool	-11.2438
power	-11.2444
han	-11.2444
▁promote	-11.245
fer	-11.2473
▁revolution	-11.2475
▁budget	-11.2476
▁excavation	-11.2477
▁plain	-11.2478
▁habitat	-11.2504
▁magic	-11.2506
▁treatment	-11.2508
war	-11.2508
▁cole	-11.2514
▁becom	-11.2518
▁achieve	-11.2525
▁guard	-11.2532
▁dail	-11.2533
were	-11.2539
▁martin	-11.2552
▁instrument	-11.2553
▁article	-11.2567
▁gulf	-11.2567
▁sculpture	-11.2568
▁nomination	-11.2569
▁tess	-11.2569
▁secretary	-11.257
▁statement	-11.258
▁fin	-11.259
▁bright	-11.2597
▁zone	-11.2601
set	-11.2602
▁dvd	-11.2602
▁improve	-11.2629
▁fair	-11.2636
ft	-11.2636
▁newly	-11.2648
▁multiple	-11.2651
▁crime	-11.2655
▁croatia	-11.2655
▁egg	-11.2659
▁communication	-11.2659
▁arrangement	-11.2659
▁homes	-11.2661
▁michi	-11.2665
▁connection	-11.2667
chi	-11.267
▁nothing	-11.2671
▁counter	-11.2685
▁charter	-11.269
▁retir	-11.2694
▁ceremon	-11.2711
▁dynast	-11.2717
▁try	-11.2721
▁choice	-11.2725
▁anonymous	-11.2752
▁recall	-11.2753
▁twin	-11.2755
mike	-11.2756
mm	-11.2757
▁jain	-11.2758
▁nathan	-11.2761
nel	-11.2788
▁organiz	-11.2805
borough	-11.2811
▁jim	-11.2815
▁tunnel	-11.2845
▁arrest	-11.2845
▁dutch	-11.2845
▁editor	-11.2849
▁steel	-11.2855
▁wait	-11.286
▁12	-11.288
▁raid	-11.2895
▁bid	-11.2914
eval	-11.2916
▁17	-11.292
▁peninsula	-11.2939
▁surrender	-11.2939
natural	-11.2941
▁truth	-11.2942
ki	-11.2943
▁po	-11.2948
▁williams	-11.2952
▁pai	-11.2957
▁basin	-11.2967
she	-11.2968
ted	-11.2982
ard	-11.2988
▁inch	-11.3001
▁champion	-11.3003
▁drawing	-11.3019
▁debate	-11.3033
▁message	-11.3035
▁technical	-11.3037
▁protection	-11.3038
▁highlight	-11.3039
▁fur	-11.3048
▁dropp	-11.3053
▁camera	-11.3058
lock	-11.3066
went	-11.3074
▁flower	-11.3074
▁inning	-11.3076
▁prove	-11.309
▁drama	-11.3097
▁ritual	-11.3108
hms	-11.3112
▁torpedo	-11.3129
▁possibilit	-11.3131
▁starr	-11.3133
▁criticism	-11.3134
▁destin	-11.314
▁morris	-11.3151
▁seek	-11.3157
▁towns	-11.3159
end	-11.3166
▁simple	-11.3167
▁europ	-11.3168
▁lover	-11.3169
▁arts	-11.3172
▁achiev	-11.3174
▁here	-11.3174
▁vice	-11.3185
▁youth	-11.3192
▁clean	-11.3193
▁introduce	-11.3196
▁biograph	-11.3224
▁mushroom	-11.3228
▁nucleus	-11.3228
▁keats	-11.3228
▁prize	-11.3229
▁household	-11.3229
▁option	-11.3229
▁why	-11.3233
▁transfer	-11.3235
▁pull	-11.3236
▁none	-11.324
▁passage	-11.3245
▁analysi	-11.3257
▁con	-11.3269
▁determine	-11.3291
▁secure	-11.3298
▁ben	-11.3312
tube	-11.332
▁ridge	-11.3323
▁recommend	-11.3323
▁lieutenant	-11.3326
▁oxford	-11.3326
▁motion	-11.3329
▁objective	-11.3329
▁remark	-11.3331
▁arms	-11.3332
▁principal	-11.3334
▁mac	-11.3336
win	-11.3338
mann	-11.3373
▁importan	-11.3377
ez	-11.3378
▁steve	-11.3408
▁laid	-11.3411
▁chains	-11.3414
▁classic	-11.3416
diff	-11.3418
box	-11.3418
▁southeast	-11.3419
▁legend	-11.342
▁avenue	-11.3425
▁kilometre	-11.3425
▁portrait	-11.3425
▁medi	-11.3425
▁promise	-11.3425
▁description	-11.3425
▁combination	-11.3426
▁interaction	-11.3426
▁russian	-11.3427
▁setting	-11.3428
sses	-11.3429
▁exit	-11.343
▁mortal	-11.343
▁grade	-11.344
half	-11.3442
▁turner	-11.3446
city	-11.3465
▁indicat	-11.3468
our	-11.347
▁schedule	-11.347
▁journal	-11.3473
▁buri	-11.3481
▁constantin	-11.3484
▁intelligence	-11.3485
▁gray	-11.3501
▁notable	-11.3502
▁incident	-11.3503
ex	-11.3506
▁spore	-11.3508
▁ranger	-11.3512
▁strike	-11.3517
game	-11.3522
▁volunteer	-11.3525
▁inscription	-11.3525
▁drain	-11.353
▁contribut	-11.3531
took	-11.3543
▁follows	-11.3544
▁lewis	-11.3545
▁gar	-11.3546
▁supplie	-11.3549
▁guy	-11.3566
fort	-11.3571
dota	-11.358
▁paint	-11.3591
▁favor	-11.3592
▁advanc	-11.3593
▁survive	-11.3602
▁tenn	-11.3611
▁dry	-11.3612
▁victim	-11.3623
▁fresh	-11.3625
▁evita	-11.3626
▁centuri	-11.3626
▁cloud	-11.3626
▁repair	-11.363
▁creator	-11.3632
▁policy	-11.3633
▁evening	-11.3633
story	-11.3635
▁wins	-11.3639
known	-11.3646
▁driver	-11.3655
cited	-11.3656
▁forc	-11.366
▁basket	-11.3661
▁kh	-11.3676
▁rebel	-11.3678
au	-11.3679
▁mo	-11.3696
▁smith	-11.3697
▁participat	-11.3697
▁theater	-11.3701
▁determin	-11.3708
ways	-11.371
▁juan	-11.3712
▁lane	-11.3716
▁joint	-11.3716
▁wolf	-11.3719
▁engage	-11.3726
▁difference	-11.3726
▁mario	-11.3726
▁perhap	-11.3728
▁assistant	-11.3728
▁interior	-11.3728
ron	-11.3731
▁cruiser	-11.3734
▁inform	-11.3737
▁belt	-11.3746
▁sell	-11.375
bridge	-11.375
▁aml	-11.3754
▁sail	-11.3776
im	-11.3783
▁lock	-11.3784
▁ending	-11.3805
▁southwest	-11.3818
zed	-11.3818
▁judge	-11.3822
▁straight	-11.3828
▁happ	-11.383
▁column	-11.3831
▁jurchen	-11.3831
▁muslim	-11.3831
▁massive	-11.3835
▁belief	-11.3838
lin	-11.3842
▁agenc	-11.3842
▁concret	-11.385
ey	-11.3858
▁finds	-11.3881
▁argue	-11.3891
ii	-11.3894
▁gross	-11.3899
▁charit	-11.3912
yson	-11.392
sh	-11.3924
▁ha	-11.393
ago	-11.3934
▁attorney	-11.3935
▁macleod	-11.3935
▁passenger	-11.3935
▁wedding	-11.3936
▁promot	-11.3939
rate	-11.3943
▁formal	-11.3951
▁formula	-11.396
▁settler	-11.3965
lisa	-11.3966
▁chamber	-11.3969
bound	-11.3969
▁econom	-11.3974
▁card	-11.3974
za	-11.3978
▁skin	-11.398
▁spot	-11.3981
▁communist	-11.3982
van	-11.3998
▁slam	-11.4
▁tall	-11.4007
rose	-11.4018
▁max	-11.402
▁glass	-11.402
▁violence	-11.404
▁retreat	-11.404
▁archaeologist	-11.4041
▁estate	-11.4049
▁penalt	-11.4053
ure	-11.4058
▁fashion	-11.4059
▁dis	-11.407
▁reading	-11.4074
▁soil	-11.408
▁electric	-11.4087
▁joe	-11.4107
world	-11.4114
▁urban	-11.412
▁rail	-11.4135
▁ray	-11.4135
▁eyes	-11.4143
▁spirit	-11.4146
▁earthquake	-11.4147
▁remnant	-11.4147
▁genre	-11.4148
▁predator	-11.4148
▁strand	-11.4149
▁librar	-11.4149
▁renam	-11.4155
ends	-11.4156
▁batsm	-11.4158
▁arrival	-11.4159
▁acre	-11.4161
▁leaders	-11.4162
▁struggle	-11.4169
▁composer	-11.417
▁weak	-11.4171
▁associate	-11.4184
any	-11.4184
▁nominat	-11.419
il	-11.4196
▁pine	-11.4202
inkel	-11.4203
▁rome	-11.4208
▁flag	-11.4209
▁fuel	-11.4221
cut	-11.4231
▁photograph	-11.4237
▁skill	-11.4242
fast	-11.4244
uly	-11.4248
▁democrat	-11.4254
▁anthony	-11.4254
▁haven	-11.4259
wards	-11.4264
▁steam	-11.4265
▁winner	-11.4289
▁exchange	-11.4289
▁bir	-11.4293
▁roads	-11.4294
force	-11.4298
▁unknow	-11.4301
active	-11.431
brian	-11.4313
▁damag	-11.4318
nba	-11.4329
course	-11.4332
can	-11.4336
▁del	-11.4342
▁var	-11.4345
▁starts	-11.4353
▁scholars	-11.4355
▁thousand	-11.4363
▁alternative	-11.4363
▁chorus	-11.4363
▁exclusive	-11.4364
▁platform	-11.4365
▁palace	-11.4366
▁page	-11.4368
▁eagle	-11.4377
▁basic	-11.4377
▁pope	-11.4378
▁charm	-11.4378
▁boundar	-11.4379
face	-11.4382
▁imperial	-11.4386
▁chronicle	-11.4389
▁improv	-11.4396
▁10	-11.4404
▁address	-11.4406
▁journalist	-11.4416
broad	-11.4417
ns	-11.444
▁surround	-11.4441
▁grey	-11.4444
▁chemical	-11.4447
▁regional	-11.4457
rick	-11.4464
▁romantic	-11.4465
▁gate	-11.447
▁publisher	-11.4472
▁conservation	-11.4473
gordon	-11.4473
▁caribbean	-11.4473
▁reception	-11.4473
▁unusual	-11.4473
▁holding	-11.4474
▁colonel	-11.4474
▁walter	-11.4474
▁panel	-11.4474
▁electronic	-11.4475
▁possession	-11.4475
▁dut	-11.4479
▁proposal	-11.448
▁easi	-11.4482
▁crash	-11.449
▁fa	-11.4507
▁spac	-11.4513
▁tom	-11.4519
roll	-11.4519
▁bo	-11.4523
▁moon	-11.4527
eat	-11.4539
▁prepared	-11.4551
▁admiral	-11.4559
▁bottom	-11.4581
▁resign	-11.4584
▁protagonist	-11.4584
▁speech	-11.4584
▁manag	-11.4593
dot	-11.4599
▁shooting	-11.4619
▁afterward	-11.4623
▁heat	-11.4629
roy	-11.4632
8	-11.4638
justice	-11.4641
▁beyonc	-11.4646
▁shift	-11.4652
ca	-11.466
▁fast	-11.4661
▁announce	-11.4672
▁sweet	-11.4692
▁fountain	-11.4696
▁rural	-11.4696
▁md	-11.4709
▁pit	-11.4726
▁sole	-11.4742
▁defender	-11.475
▁industrial	-11.4752
▁alien	-11.4754
▁warm	-11.4764
▁roof	-11.4768
part	-11.4769
▁abu	-11.4775
▁owner	-11.4787
oba	-11.4794
▁essential	-11.4797
▁knot	-11.4801
glades	-11.4808
▁unsuccessful	-11.481
▁expert	-11.481
▁oslo	-11.481
▁railroad	-11.481
▁attain	-11.4811
▁columbia	-11.4815
full	-11.4818
▁soul	-11.4824
▁verse	-11.4827
▁visitor	-11.4827
▁jazz	-11.4832
▁holy	-11.4837
▁decide	-11.4848
▁clock	-11.4853
▁apart	-11.4858
yard	-11.4868
▁di	-11.4875
▁prov	-11.4886
▁mega	-11.4892
▁shell	-11.4894
▁dur	-11.4895
▁trad	-11.4899
▁garden	-11.4912
dy	-11.4917
ba	-11.4918
▁shoot	-11.4919
▁wish	-11.4921
▁govern	-11.4922
▁egypt	-11.4924
▁component	-11.4925
▁favorite	-11.4925
mes	-11.4934
▁authors	-11.4953
▁powers	-11.4955
zong	-11.4962
▁submarine	-11.4964
▁print	-11.4966
▁memorial	-11.4976
▁graphic	-11.4988
▁cook	-11.4993
nc	-11.5013
ir	-11.502
▁drop	-11.5029
▁rich	-11.5032
▁regime	-11.5033
▁atmosphere	-11.5041
▁douglas	-11.5041
▁jersey	-11.5041
▁resource	-11.5041
▁faith	-11.5041
▁convoy	-11.5042
▁variation	-11.5042
▁township	-11.5047
▁witch	-11.505
▁monarch	-11.5054
headed	-11.5056
dream	-11.506
▁rainf	-11.5065
▁clos	-11.5066
▁daniel	-11.5069
▁price	-11.5071
▁13	-11.5081
▁quite	-11.5082
▁somali	-11.5084
per	-11.5086
rich	-11.5099
▁shipp	-11.5102
gone	-11.5105
▁par	-11.5105
▁alexand	-11.5113
▁fellow	-11.5118
aged	-11.5122
but	-11.5122
▁liu	-11.5146
▁certifi	-11.5152
▁dramatic	-11.5153
▁bois	-11.5153
▁sample	-11.5157
▁fun	-11.5157
▁kitsune	-11.5159
▁colonial	-11.5159
▁enterprise	-11.5159
▁venus	-11.5165
▁swed	-11.5171
▁hell	-11.5176
shire	-11.5181
▁prey	-11.5188
▁signing	-11.5191
hat	-11.5196
▁bart	-11.5198
▁programme	-11.5207
▁wil	-11.5218
▁desert	-11.5239
▁alli	-11.5247
▁aim	-11.5251
gé	-11.5258
amount	-11.5262
▁mind	-11.5269
▁politic	-11.5274
▁exhibit	-11.5275
▁deploy	-11.5277
▁academic	-11.5278
▁opposition	-11.5278
cé	-11.5279
▁recogniz	-11.528
▁georgian	-11.5281
▁battleship	-11.5282
▁engag	-11.5286
▁equal	-11.5287
▁gwen	-11.5293
pack	-11.5304
▁plane	-11.5306
▁adding	-11.5312
▁asia	-11.5318
▁9	-11.5324
how	-11.5326
▁correct	-11.5334
▁establishment	-11.5344
▁weight	-11.5353
▁sho	-11.5376
▁hindu	-11.5381
evo	-11.5388
utc	-11.5392
▁sufficient	-11.5398
▁sequel	-11.5398
▁amateur	-11.5398
▁hornung	-11.5398
▁recruit	-11.5398
▁convecti	-11.5399
▁investigation	-11.54
▁jones	-11.5402
▁venue	-11.5403
▁holly	-11.5405
▁trust	-11.5406
▁successor	-11.5406
light	-11.5418
▁doubt	-11.5418
▁warning	-11.5422
▁bath	-11.5428
▁champions	-11.5438
elling	-11.5444
ming	-11.5455
▁emotional	-11.5455
book	-11.5469
▁dublin	-11.5475
▁defin	-11.5476
▁kings	-11.5513
▁honour	-11.5519
▁offense	-11.552
▁application	-11.552
▁trujill	-11.552
▁hibari	-11.552
▁montana	-11.5521
cruz	-11.5523
▁supposed	-11.5523
▁sunday	-11.5524
med	-11.5526
▁supporter	-11.5528
▁driv	-11.554
mi	-11.5552
▁drug	-11.5566
nl	-11.5573
▁har	-11.5578
▁medal	-11.5581
▁falls	-11.5582
os	-11.56
ence	-11.561
ace	-11.5629
▁holds	-11.5634
▁worship	-11.564
▁pregnan	-11.5644
▁eighth	-11.5644
▁download	-11.5644
▁doctor	-11.5644
▁siege	-11.5645
▁intersection	-11.5645
▁agricultural	-11.5648
▁croatian	-11.5649
▁bomb	-11.5649
▁professor	-11.565
▁researcher	-11.5652
▁rush	-11.5653
ado	-11.5662
▁tourist	-11.5672
▁repeated	-11.5675
▁pitcher	-11.5676
lb	-11.5682
theles	-11.5686
▁supply	-11.5699
▁divid	-11.5701
ge	-11.571
▁von	-11.5719
▁abilit	-11.5733
▁parallel	-11.5733
iv	-11.5739
▁exact	-11.5742
▁christ	-11.5742
▁flat	-11.5744
▁rath	-11.5749
berg	-11.575
▁acquir	-11.5756
▁heads	-11.576
▁impress	-11.5762
▁controvers	-11.5768
▁mississippi	-11.5769
▁reputation	-11.5769
▁benefit	-11.5769
▁squad	-11.5769
▁evil	-11.5769
▁supreme	-11.577
▁inspiration	-11.577
▁chairman	-11.577
▁labour	-11.5771
▁frame	-11.5772
ating	-11.5772
ruli	-11.5772
▁designation	-11.5781
▁dispute	-11.5785
▁remove	-11.5797
▁dismiss	-11.5797
bert	-11.58
▁galler	-11.5801
▁beg	-11.5809
▁mc	-11.5813
▁moderate	-11.5818
player	-11.5824
▁rival	-11.583
▁appli	-11.5832
▁constant	-11.5856
▁burn	-11.5857
▁chels	-11.5858
▁mad	-11.5871
▁haiti	-11.5892
▁sai	-11.5892
▁global	-11.5895
▁roger	-11.5896
▁roxa	-11.5902
▁picture	-11.5903
ble	-11.5914
▁exception	-11.5922
▁capacit	-11.5922
▁symbol	-11.5926
▁alter	-11.5931
▁fan	-11.5939
▁tribes	-11.5939
urus	-11.5943
online	-11.5951
▁propose	-11.5953
western	-11.5963
▁detect	-11.5996
▁emerg	-11.5997
sis	-11.5998
kin	-11.6006
▁environment	-11.6006
▁identit	-11.6007
▁belong	-11.6011
▁trouble	-11.6013
▁iguanodon	-11.6014
▁surprise	-11.6014
▁frederick	-11.6023
▁warrior	-11.6024
▁plunkett	-11.6024
ization	-11.6024
▁arsenal	-11.6024
▁replacement	-11.6026
ae	-11.6028
▁gameplay	-11.6028
hire	-11.6031
▁secur	-11.6031
▁assistance	-11.6032
▁compete	-11.6034
▁instance	-11.6038
▁affair	-11.6041
iro	-11.6049
▁blow	-11.6051
▁ali	-11.6054
▁locate	-11.6054
▁substantial	-11.6054
smith	-11.6056
▁dinosaur	-11.6056
right	-11.6059
▁tomb	-11.6062
▁tide	-11.6063
▁isabell	-11.6071
ough	-11.6086
▁step	-11.6095
▁deni	-11.6104
▁measur	-11.6115
▁proceed	-11.6121
▁lords	-11.6121
▁die	-11.6121
▁convention	-11.6122
soft	-11.6125
▁santa	-11.6134
▁distinguish	-11.6136
▁pound	-11.6141
hill	-11.6149
▁activis	-11.615
▁stevens	-11.6152
▁disaster	-11.6153
▁ghost	-11.6154
▁dangerous	-11.6154
▁fields	-11.6154
▁howard	-11.6158
▁pupil	-11.6163
▁tri	-11.6165
▁ire	-11.6185
▁homer	-11.6186
▁preferr	-11.6191
▁commando	-11.6194
space	-11.6202
▁colonie	-11.6203
pa	-11.6205
▁touch	-11.6207
▁fictional	-11.621
▁accident	-11.6212
▁harris	-11.6212
▁samuel	-11.6218
olar	-11.6222
fish	-11.6231
op	-11.6237
▁attach	-11.624
aiss	-11.6243
▁strip	-11.6251
▁experiment	-11.6256
▁offering	-11.6265
▁segment	-11.6285
▁expansion	-11.6285
▁anzac	-11.6286
▁wicket	-11.6286
▁jifn	-11.6287
let	-11.6294
▁signal	-11.6298
▁biographer	-11.6302
brien	-11.6311
▁shark	-11.6318
ent	-11.6319
▁split	-11.6325
▁yan	-11.6327
▁accus	-11.6354
▁invit	-11.6366
▁declin	-11.6368
▁lee	-11.637
▁turns	-11.6374
▁tactic	-11.6378
▁tim	-11.6383
▁contest	-11.6387
▁universal	-11.6394
▁solid	-11.6394
▁argentin	-11.6394
▁kang	-11.6404
▁indig	-11.6406
▁collapse	-11.6409
▁deriv	-11.641
araj	-11.6415
▁recognize	-11.6416
▁diameter	-11.6418
▁criminal	-11.6419
▁initiative	-11.6419
▁talent	-11.6419
▁outstanding	-11.6419
eath	-11.6421
▁commandment	-11.6423
▁travell	-11.6425
▁manner	-11.6426
▁vary	-11.6435
▁proper	-11.6439
▁notice	-11.6455
now	-11.6462
▁visibl	-11.6462
seas	-11.6463
▁ensure	-11.6467
▁bann	-11.6479
ular	-11.6482
▁ram	-11.6487
▁folk	-11.6491
gate	-11.6496
▁attribute	-11.6497
▁gill	-11.6503
▁mechanic	-11.6508
▁dominat	-11.6509
iston	-11.6528
▁introduction	-11.6543
▁hundred	-11.6549
▁strateg	-11.655
▁convince	-11.6553
▁predecessor	-11.6553
▁heaven	-11.6554
▁guardian	-11.6554
▁loose	-11.6555
▁preparation	-11.6555
▁korean	-11.6557
▁scholar	-11.6563
▁1	-11.6568
▁farm	-11.6576
▁puzzle	-11.6588
wall	-11.6598
▁tend	-11.6614
▁stephen	-11.6622
▁wilde	-11.6623
cover	-11.6627
ages	-11.6631
we	-11.6631
▁hugh	-11.6635
▁bit	-11.6642
▁franchise	-11.6643
▁orchestra	-11.6648
wa	-11.6657
▁prison	-11.6659
▁responsibilit	-11.666
ide	-11.6669
▁bus	-11.667
▁norman	-11.6682
▁intention	-11.6682
▁lands	-11.669
▁disappear	-11.669
vāda	-11.669
▁adjacen	-11.669
▁calvert	-11.669
▁jerusalem	-11.669
▁simultaneous	-11.669
▁turret	-11.669
▁sudden	-11.669
▁holiday	-11.669
▁laborator	-11.669
▁gift	-11.6691
▁wrong	-11.6691
▁helmet	-11.6691
▁lbw	-11.6691
▁consistent	-11.6691
▁mccart	-11.6693
40	-11.6696
▁chess	-11.6706
▁views	-11.6728
▁sky	-11.6731
hits	-11.674
▁classe	-11.6751
▁entr	-11.6752
greed	-11.6756
▁context	-11.6764
▁victoria	-11.6778
olí	-11.6778
▁mode	-11.6778
▁issu	-11.6796
jin	-11.6809
▁knock	-11.6824
herit	-11.6828
▁anniversar	-11.6829
▁scientist	-11.6829
▁dialogue	-11.6829
▁cult	-11.6831
trick	-11.6837
▁grace	-11.6837
▁favour	-11.6839
▁sand	-11.6839
▁catch	-11.6839
▁crossing	-11.6841
▁11	-11.6842
ho	-11.685
tial	-11.6868
▁col	-11.6875
rooms	-11.6878
▁16	-11.6881
▁neck	-11.6894
▁cycle	-11.6896
▁founder	-11.6899
ul	-11.6905
id	-11.6914
▁suffering	-11.692
▁distribution	-11.692
▁developer	-11.6936
▁adams	-11.6938
▁clay	-11.694
ious	-11.6955
▁bigge	-11.6957
▁accompani	-11.6957
▁carol	-11.6968
▁fragment	-11.697
▁superior	-11.697
▁junior	-11.697
▁install	-11.697
▁remember	-11.697
▁ministr	-11.6971
▁crusader	-11.6973
▁plate	-11.6973
▁contribution	-11.6974
▁richardson	-11.6974
▁internal	-11.6976
▁discussion	-11.6977
▁selection	-11.6977
▁committ	-11.6985
▁calls	-11.6989
▁watershed	-11.7003
▁aston	-11.7006
ina	-11.701
▁aeri	-11.7015
▁observe	-11.7017
▁clark	-11.7034
▁identifi	-11.7038
▁johnston	-11.7051
▁camps	-11.7053
ak	-11.7053
li	-11.7057
offers	-11.7057
▁nbc	-11.706
▁somalia	-11.7062
▁dna	-11.7065
▁duke	-11.7066
▁prompt	-11.708
▁cris	-11.708
mer	-11.7096
vin	-11.7097
▁mole	-11.7101
▁archbishop	-11.7113
▁cambridge	-11.7113
▁pleasure	-11.7113
▁netherland	-11.7113
▁completion	-11.7115
▁adaptation	-11.7116
▁moral	-11.7117
▁monitor	-11.7118
▁carter	-11.7119
▁triple	-11.7119
▁load	-11.7127
▁encourag	-11.7128
▁patron	-11.7129
▁mu	-11.713
▁waters	-11.7131
▁classical	-11.7133
▁queens	-11.7138
▁dann	-11.7138
ible	-11.7139
▁vot	-11.7145
con	-11.7156
▁dai	-11.7166
▁nin	-11.7174
▁unite	-11.7176
ik	-11.7185
▁classifi	-11.719
▁neith	-11.7197
▁spoke	-11.7209
▁scientific	-11.7212
▁sacr	-11.7217
▁plum	-11.7227
▁coup	-11.7232
▁constitution	-11.7236
▁pa	-11.7237
▁disc	-11.724
▁hearts	-11.7249
▁georgia	-11.7254
▁puppet	-11.7258
▁molecule	-11.7258
▁controversial	-11.7258
▁employee	-11.7258
▁stefan	-11.7259
▁confession	-11.7259
▁improvement	-11.726
▁possess	-11.726
▁elder	-11.7261
▁romani	-11.7264
▁ruin	-11.7267
▁transition	-11.7274
▁circle	-11.7279
▁canon	-11.729
▁pure	-11.7301
gas	-11.7313
bidden	-11.7319
▁inner	-11.7327
ran	-11.7329
▁termin	-11.7336
▁exercise	-11.7341
▁door	-11.7352
pool	-11.7353
▁cd	-11.7355
▁schedul	-11.7357
io	-11.7362
takes	-11.7365
▁patrol	-11.7366
▁jeff	-11.7384
▁brand	-11.7392
▁listen	-11.7392
▁alan	-11.7395
▁bat	-11.7397
▁cinema	-11.7401
▁choir	-11.7405
▁opposite	-11.7405
▁gerard	-11.7405
▁observator	-11.7405
▁equivalent	-11.7405
▁escort	-11.7406
▁reconstruction	-11.7406
▁brick	-11.7407
▁pursue	-11.7408
▁congo	-11.7409
▁diet	-11.7411
▁equipp	-11.7414
▁admitted	-11.7414
fire	-11.7414
▁intensifi	-11.7419
▁guilt	-11.7425
▁fras	-11.7425
▁rob	-11.7427
▁rivers	-11.743
▁sapr	-11.7448
▁ruler	-11.7451
▁showing	-11.7454
▁moore	-11.7454
▁poll	-11.7474
star	-11.748
▁manga	-11.7494
▁motor	-11.7499
▁fix	-11.7505
▁combine	-11.7506
dell	-11.7507
▁ranking	-11.7516
▁drink	-11.753
critic	-11.7533
▁jean	-11.7543
▁designer	-11.7546
▁existen	-11.7553
▁artificial	-11.7554
▁nightingale	-11.7554
▁pioneer	-11.7554
▁streak	-11.7554
▁platoon	-11.7554
▁restoration	-11.7555
▁narrative	-11.7555
▁advertis	-11.7555
▁gas	-11.7564
▁sol	-11.757
▁income	-11.757
▁conclude	-11.7571
cal	-11.7571
▁shop	-11.7571
▁parish	-11.7575
▁gett	-11.7579
organ	-11.758
▁prisoner	-11.759
▁adam	-11.7601
▁matt	-11.7618
▁serb	-11.7624
▁wi	-11.7624
▁refuse	-11.7625
▁ash	-11.7628
▁corn	-11.7631
▁mill	-11.7639
▁mental	-11.7642
▁file	-11.7643
mount	-11.7645
▁mayor	-11.7647
▁resemble	-11.7652
▁capabl	-11.7655
▁firing	-11.7659
▁nois	-11.7662
▁deposit	-11.7666
▁graph	-11.7673
heim	-11.7673
▁interne	-11.7676
▁handl	-11.7686
▁rhythm	-11.7687
ridge	-11.7699
▁occupation	-11.7706
▁senator	-11.7706
▁amino	-11.7707
▁erect	-11.7708
▁medium	-11.7708
acre	-11.7714
▁cloth	-11.7717
▁muld	-11.772
ze	-11.7721
▁cape	-11.7724
▁hills	-11.7727
▁ode	-11.7728
▁intense	-11.7728
▁marks	-11.7738
love	-11.7739
▁coal	-11.7742
eng	-11.775
af	-11.7752
▁organisation	-11.7754
form	-11.7754
sey	-11.7756
▁restore	-11.7759
▁expens	-11.7773
graf	-11.7777
▁tape	-11.7781
▁fif	-11.7782
▁blocks	-11.7785
▁broad	-11.7791
xe	-11.78
▁wrestl	-11.7801
▁beside	-11.7803
▁slave	-11.7815
▁carl	-11.7822
▁preserve	-11.7841
▁stretch	-11.7844
▁brook	-11.7853
room	-11.7857
▁hous	-11.7858
▁architect	-11.7859
▁elizabeth	-11.786
▁tribute	-11.786
▁extension	-11.786
▁scatter	-11.786
▁conclusion	-11.786
▁canyon	-11.786
▁jos	-11.786
▁collaboration	-11.7861
▁leonard	-11.7862
▁ca	-11.7866
▁republican	-11.7869
▁climate	-11.787
▁kenne	-11.787
ji	-11.7874
nintend	-11.7877
has	-11.7884
▁understanding	-11.789
▁gull	-11.7896
▁sang	-11.7899
▁stands	-11.7907
▁suit	-11.7908
▁cub	-11.7913
▁reconn	-11.7914
bow	-11.7919
ix	-11.7921
▁15	-11.7924
hg	-11.7925
▁fate	-11.7932
▁warn	-11.7939
▁clarks	-11.7951
▁trace	-11.7969
▁laws	-11.7981
rence	-11.7983
under	-11.7984
ker	-11.799
ier	-11.7991
state	-11.7991
▁spell	-11.7992
ean	-11.8004
iness	-11.8006
wimbl	-11.8007
▁imagine	-11.8007
▁beautiful	-11.801
operating	-11.8012
▁pale	-11.8014
munition	-11.8016
ʻ	-11.8016
▁behavior	-11.8016
▁perspective	-11.8016
▁absence	-11.8016
▁goddess	-11.8016
▁persian	-11.8016
▁accompany	-11.8017
▁scout	-11.8017
▁armour	-11.8018
▁buy	-11.8018
▁tiger	-11.8019
▁residence	-11.802
▁scheme	-11.8021
▁advisor	-11.8035
▁crest	-11.8037
▁jesu	-11.8043
▁courts	-11.8057
top	-11.8058
▁restrict	-11.806
▁hocke	-11.8061
attle	-11.8065
▁francisc	-11.8084
▁jacket	-11.8097
▁shoulder	-11.81
▁isolat	-11.8104
fare	-11.8111
▁dave	-11.8114
▁operat	-11.8116
▁documentar	-11.8124
▁fei	-11.813
▁predict	-11.8135
▁owen	-11.8142
▁profit	-11.8152
▁muscari	-11.8156
▁pav	-11.8158
about	-11.8162
ius	-11.8168
▁achievement	-11.8169
▁chick	-11.8173
▁catechism	-11.8175
▁acclaim	-11.8175
▁circumstance	-11.8175
▁geoff	-11.8175
▁cemeter	-11.8175
▁spiritual	-11.8176
▁punt	-11.8176
▁legislation	-11.8177
cía	-11.8178
▁anekānta	-11.8178
▁kilmer	-11.8181
▁deem	-11.8181
viation	-11.8192
▁closer	-11.8203
limit	-11.8203
▁edit	-11.8213
▁charl	-11.8215
▁participate	-11.822
▁rhyme	-11.8227
▁recognition	-11.8245
ling	-11.8249
▁municipal	-11.825
▁eliminat	-11.8266
▁mere	-11.8272
▁code	-11.8273
through	-11.8273
▁follower	-11.8276
raid	-11.8281
▁burning	-11.8293
▁suspect	-11.8298
▁publishe	-11.8301
▁sort	-11.8302
▁hull	-11.8304
bn	-11.8314
▁slide	-11.8321
▁mine	-11.8325
▁bana	-11.8326
cute	-11.8327
▁bridges	-11.8334
▁helicopter	-11.8336
▁jackrabbit	-11.8336
▁manuscript	-11.8336
▁garrison	-11.8336
▁skull	-11.8336
▁ticket	-11.8336
▁protestant	-11.8336
▁atlant	-11.8338
▁pitman	-11.8339
▁impression	-11.834
▁ho	-11.8341
▁impossibl	-11.8343
▁cbs	-11.8348
dam	-11.835
▁survivors	-11.8356
▁generat	-11.8357
▁cabin	-11.8371
▁destructi	-11.8373
▁circulati	-11.8376
rew	-11.8379
▁baron	-11.838
▁incorporate	-11.8382
▁bush	-11.8392
color	-11.8393
▁annually	-11.8397
▁op	-11.8404
▁observer	-11.8404
▁switch	-11.8405
▁musician	-11.8407
▁lap	-11.8407
▁covering	-11.8416
▁lancas	-11.8419
▁corner	-11.843
▁musicians	-11.8433
▁emphasis	-11.8437
▁gather	-11.8442
▁earning	-11.845
ng	-11.845
▁distribut	-11.8455
▁settl	-11.8457
ology	-11.8457
▁arc	-11.8464
▁string	-11.8471
▁zoo	-11.8471
▁statue	-11.8474
▁melod	-11.8474
▁sugar	-11.8478
▁encourage	-11.8483
▁exposure	-11.8484
▁update	-11.8491
▁cancer	-11.8496
▁situat	-11.8499
▁exhaust	-11.8499
▁answer	-11.85
▁colleague	-11.85
▁stanley	-11.85
▁shakespeare	-11.85
▁embark	-11.85
burgh	-11.85
▁mixture	-11.8501
ner	-11.8501
▁elevation	-11.8501
▁concentration	-11.8501
▁argument	-11.8501
▁false	-11.8502
▁barker	-11.8502
▁continuous	-11.8503
▁palestin	-11.8503
▁krak	-11.8507
bar	-11.851
▁pirate	-11.8511
▁roberts	-11.8518
▁shao	-11.8518
▁caval	-11.8522
front	-11.8523
▁emergenc	-11.8525
ware	-11.8525
▁realize	-11.8532
▁assum	-11.8541
▁shrine	-11.8542
▁northward	-11.8543
▁speaker	-11.8553
▁graduat	-11.8559
▁suburb	-11.8567
▁princess	-11.8572
lu	-11.8581
iana	-11.8584
sch	-11.8584
ting	-11.8591
▁shar	-11.8603
▁substitute	-11.861
anti	-11.8618
▁purchas	-11.8619
oxide	-11.8621
wing	-11.8627
▁sword	-11.8636
▁modifi	-11.8642
point	-11.8645
have	-11.8648
here	-11.865
▁kev	-11.8659
▁hunting	-11.8662
▁reservoir	-11.8666
▁shelter	-11.8667
▁departure	-11.8667
▁huge	-11.8667
diterran	-11.8668
▁waterfall	-11.8669
▁cater	-11.8672
ombat	-11.8677
▁presentation	-11.8677
▁tries	-11.8686
▁influen	-11.8688
nam	-11.8689
▁environmental	-11.8689
▁dense	-11.8702
amy	-11.8705
▁premiere	-11.8708
▁understand	-11.8709
▁celebrate	-11.8711
▁lose	-11.8714
▁wars	-11.8719
▁shirt	-11.8721
onica	-11.8738
▁maria	-11.874
ac	-11.874
▁nurse	-11.875
isle	-11.8755
res	-11.8757
▁compare	-11.8764
weight	-11.8766
▁conversation	-11.8772
borne	-11.8779
▁hunt	-11.878
▁willing	-11.8785
▁tax	-11.8786
▁bureau	-11.8809
▁arrang	-11.8824
▁weigh	-11.8826
orythos	-11.8828
▁mor	-11.883
▁cambodia	-11.8832
▁ryan	-11.8832
▁assert	-11.8833
▁implement	-11.8835
▁mammal	-11.8836
▁saturday	-11.8836
▁ustaš	-11.8836
▁buoy	-11.8836
▁comparison	-11.8836
▁grammy	-11.8836
▁throne	-11.8836
▁nickname	-11.8836
▁hamlet	-11.8836
▁device	-11.8836
▁inhabitant	-11.8836
cock	-11.8837
▁substance	-11.8837
▁doctrine	-11.8838
▁insist	-11.8841
▁hokie	-11.8846
▁divorce	-11.8848
ries	-11.8849
▁parvat	-11.8855
▁vertical	-11.8859
▁goe	-11.886
▁pink	-11.8861
▁essay	-11.8862
▁preced	-11.8863
hard	-11.8867
made	-11.8869
már	-11.8874
▁explore	-11.8876
▁lowest	-11.8878
▁farmer	-11.888
▁format	-11.8885
▁cruise	-11.8885
strong	-11.8897
▁khand	-11.8905
▁raff	-11.8916
▁aggressive	-11.8923
▁wings	-11.8929
dale	-11.8932
▁cars	-11.8934
▁bost	-11.8944
▁tributar	-11.8944
▁sharp	-11.8949
▁bulls	-11.8953
▁phoeni	-11.8962
▁dream	-11.8963
malle	-11.8968
▁snake	-11.8972
▁fre	-11.8973
▁betwe	-11.8975
▁dominican	-11.8988
▁ré	-11.8997
▁notabl	-11.9003
▁crosse	-11.9008
▁behaviour	-11.9008
▁richmond	-11.9009
▁portug	-11.9009
▁liberal	-11.9009
▁resolution	-11.9009
▁reinforcement	-11.9009
▁kannad	-11.901
▁definition	-11.901
▁requirement	-11.9012
▁canter	-11.9013
▁useful	-11.9014
▁patty	-11.9016
▁wu	-11.9017
▁midge	-11.9017
▁depiction	-11.902
▁jew	-11.9021
▁entitl	-11.9025
▁infrastructur	-11.9028
▁phillie	-11.9028
▁differ	-11.903
ties	-11.9036
▁criticis	-11.904
▁tight	-11.9054
nell	-11.9061
▁usa	-11.9065
arrow	-11.9068
▁inde	-11.9078
▁divers	-11.9081
▁wasp	-11.9085
acea	-11.9089
▁exten	-11.9096
▁send	-11.9108
ow	-11.9114
▁inhabit	-11.9121
▁philosoph	-11.9162
care	-11.9164
▁curve	-11.9176
limo	-11.9179
▁intersect	-11.9182
em	-11.9183
▁virgin	-11.9183
▁ambassador	-11.9184
▁hudson	-11.9184
▁prerogative	-11.9184
▁yankee	-11.9184
▁vander	-11.9185
▁politician	-11.9186
▁animation	-11.9186
▁measurement	-11.9187
▁bear	-11.9187
har	-11.9187
▁anthem	-11.9188
castle	-11.9189
▁let	-11.9189
brush	-11.9192
▁toll	-11.9195
▁danger	-11.9195
thinking	-11.9201
▁minim	-11.9202
▁hart	-11.9202
film	-11.9204
▁elaborate	-11.9207
▁ital	-11.9213
clair	-11.9214
huset	-11.9218
▁upset	-11.9226
▁demonstrat	-11.9242
▁kod	-11.9252
▁manufactur	-11.9258
▁trek	-11.9261
▁su	-11.9269
▁incorporat	-11.927
▁occasions	-11.9273
▁dawn	-11.9286
nh	-11.9293
▁marc	-11.931
▁miller	-11.9312
▁grounds	-11.9329
▁sam	-11.9336
▁interpret	-11.9341
▁calle	-11.9342
▁massac	-11.9348
▁whil	-11.9356
ode	-11.9358
held	-11.9361
▁imprison	-11.9362
▁pistol	-11.9362
▁universe	-11.9362
▁mexican	-11.9362
▁oscar	-11.9363
▁circuit	-11.9364
▁suicide	-11.9364
▁virtual	-11.9364
▁easy	-11.9365
▁mbar	-11.9365
▁pagan	-11.9366
▁anime	-11.9366
▁renew	-11.9367
lew	-11.9369
▁marry	-11.9369
▁reache	-11.9377
woman	-11.9382
▁execut	-11.9384
▁jas	-11.9398
▁divide	-11.9401
▁creative	-11.9417
▁terrorist	-11.9436
hy	-11.944
▁witness	-11.9443
▁fowl	-11.9455
rey	-11.9457
▁israeli	-11.9459
▁slope	-11.9463
▁meter	-11.9463
▁pen	-11.9471
▁expos	-11.9484
gen	-11.9506
▁absorb	-11.9524
▁expression	-11.9524
▁ethnic	-11.9529
ah	-11.953
▁tru	-11.9533
▁voyage	-11.9541
▁fir	-11.9543
kansas	-11.9544
▁accurate	-11.9544
▁sentiment	-11.9544
▁frigate	-11.9544
▁zombie	-11.9544
▁gilbert	-11.9544
▁celtic	-11.9544
▁stewart	-11.9544
▁quarterback	-11.9545
ronto	-11.9547
▁furta	-11.9548
▁hawaiian	-11.9548
▁playoff	-11.955
▁southeaster	-11.9551
▁costume	-11.9551
ette	-11.9554
▁kim	-11.9554
▁peach	-11.9554
▁smooth	-11.9556
bi	-11.9557
▁accomplish	-11.9557
▁indie	-11.9558
▁plateau	-11.9558
▁glad	-11.9561
▁fe	-11.9569
▁weekend	-11.9569
born	-11.957
▁readers	-11.9573
▁jonath	-11.9574
▁pr	-11.9576
▁tip	-11.9581
▁citizens	-11.959
sex	-11.9593
▁palm	-11.9593
▁heli	-11.9597
▁partner	-11.9602
lies	-11.9605
▁crush	-11.9614
mond	-11.9622
dock	-11.9626
▁norwa	-11.9633
▁char	-11.9638
milton	-11.964
late	-11.9647
▁sees	-11.9653
▁organis	-11.9659
▁originat	-11.9663
ceratops	-11.9663
▁des	-11.9683
▁fighter	-11.969
ell	-11.97
▁transform	-11.97
▁arthur	-11.9703
▁vast	-11.9703
into	-11.9705
market	-11.9719
▁runner	-11.9723
▁reinforce	-11.9725
í	-11.9729
▁consequence	-11.9729
▁concession	-11.9729
▁shaft	-11.973
▁martial	-11.9731
▁herald	-11.9731
ram	-11.9733
▁northeaster	-11.9739
▁baker	-11.9741
▁choose	-11.9744
▁bible	-11.9745
▁runway	-11.9747
▁ride	-11.9749
▁scul	-11.975
▁margin	-11.9755
▁davis	-11.9756
▁spectr	-11.9765
▁dual	-11.977
▁feathers	-11.9776
master	-11.9786
▁crops	-11.9787
▁owners	-11.9792
9	-11.9794
▁seal	-11.9796
▁decorat	-11.9805
▁bon	-11.981
▁commissioner	-11.9812
▁span	-11.9833
flow	-11.9834
gary	-11.9838
▁preserv	-11.9839
▁allen	-11.9841
▁relations	-11.9849
▁jay	-11.9852
ru	-11.9863
▁sunk	-11.9863
cast	-11.9863
▁sale	-11.9864
▁halt	-11.9869
ranges	-11.9872
ndh	-11.9874
▁assume	-11.9875
▁dynamic	-11.9879
▁metallic	-11.9879
▁tie	-11.9881
etroi	-11.9884
▁complain	-11.9905
▁import	-11.9911
▁sponsor	-11.9915
▁disrupt	-11.9915
▁topp	-11.9918
▁absolute	-11.9918
▁conservative	-11.9918
▁supplement	-11.9918
▁tissue	-11.9918
▁vulcan	-11.9918
▁error	-11.9918
▁mathew	-11.9918
▁wiśniowiecki	-11.9918
▁uniform	-11.9918
uefa	-11.9918
▁cotton	-11.992
▁depart	-11.992
▁artwork	-11.992
▁infection	-11.9921
ensi	-11.9923
▁chaga	-11.9929
▁globe	-11.9929
▁artistic	-11.9929
▁pictures	-11.993
▁dean	-11.9931
▁jr	-11.9932
ston	-11.9933
▁gap	-11.9933
▁pipe	-11.994
▁attribut	-11.9943
▁controller	-11.9946
tag	-11.995
▁translation	-11.9958
▁whit	-11.9963
▁cat	-11.9978
▁myth	-11.9978
ros	-11.9984
▁niels	-11.9985
structure	-11.9996
▁joke	-11.9997
yn	-12.0001
▁genetic	-12.0006
▁guid	-12.0008
▁comprise	-12.0012
▁boss	-12.0014
▁compris	-12.0017
core	-12.0019
▁ballad	-12.0019
ol	-12.0038
arts	-12.0041
list	-12.0051
stable	-12.0051
▁shock	-12.0058
ily	-12.0062
▁philip	-12.0072
▁churche	-12.0081
pp	-12.0082
anna	-12.0083
los	-12.0083
vi	-12.0083
▁sleep	-12.0089
▁bind	-12.0089
▁marian	-12.0093
bby	-12.0101
▁mouth	-12.0104
▁russia	-12.0107
▁prepare	-12.0108
▁deput	-12.0109
istic	-12.011
▁battlecruiser	-12.011
▁dakota	-12.011
▁dwarf	-12.011
▁harbour	-12.011
▁identify	-12.011
▁magnitude	-12.011
▁exploit	-12.011
▁paralympic	-12.011
▁violent	-12.011
▁striking	-12.011
▁federation	-12.011
▁radical	-12.0111
▁revenue	-12.0111
▁decay	-12.0111
▁reduction	-12.0111
▁houston	-12.0112
dominant	-12.0112
▁cargo	-12.0112
▁revival	-12.0113
bertin	-12.0114
▁ex	-12.0115
▁tracy	-12.0115
▁gust	-12.0118
▁archer	-12.0119
▁barry	-12.0124
▁vi	-12.0128
▁passion	-12.0129
him	-12.0131
▁table	-12.0132
▁jaw	-12.0148
▁mis	-12.0149
▁fia	-12.0151
▁chain	-12.0155
ras	-12.0156
▁micro	-12.0163
▁greates	-12.0172
▁mint	-12.0182
aska	-12.019
▁victorian	-12.019
▁sounds	-12.0192
ood	-12.0198
▁shear	-12.0201
▁crake	-12.0206
▁parade	-12.0209
inster	-12.0211
▁generals	-12.022
than	-12.0223
rie	-12.0228
essa	-12.0235
▁ones	-12.0237
ni	-12.0246
▁pat	-12.0252
▁emotion	-12.0263
▁architecture	-12.0264
feld	-12.0266
▁chas	-12.0274
dad	-12.0279
▁temporar	-12.0281
▁vii	-12.0293
▁euro	-12.0298
▁arena	-12.0298
▁nebr	-12.0305
▁mozambi	-12.0306
▁chevalier	-12.0306
▁merchant	-12.0306
▁persist	-12.0306
▁shadow	-12.0306
▁twentie	-12.0306
▁valkyria	-12.0307
▁knee	-12.0307
▁caesar	-12.0307
▁qedarite	-12.0307
▁valve	-12.0307
▁lawyer	-12.0307
▁retirement	-12.0307
▁strategic	-12.0311
▁three	-12.0313
▁milk	-12.0314
▁teammate	-12.0319
▁personality	-12.0319
▁dag	-12.0323
▁hans	-12.0326
▁jobs	-12.0329
uk	-12.033
▁para	-12.0339
bru	-12.034
ken	-12.034
▁cent	-12.0341
▁corporation	-12.0344
▁radiati	-12.0345
hi	-12.0347
▁christi	-12.0353
▁flash	-12.0354
year	-12.0357
▁relegat	-12.0362
lo	-12.0363
▁ideal	-12.0375
ria	-12.0375
▁marking	-12.0375
▁valuable	-12.0378
moor	-12.0378
▁relation	-12.0379
▁thin	-12.0383
▁declare	-12.0387
ders	-12.039
▁dan	-12.0418
▁undergo	-12.0423
ulu	-12.0427
tail	-12.0434
▁blues	-12.0439
▁jon	-12.0448
▁mail	-12.045
▁usd	-12.0451
▁investment	-12.0456
rest	-12.0465
solution	-12.0467
bel	-12.0471
▁rebuil	-12.0477
ad	-12.0484
▁bull	-12.0485
▁user	-12.0495
ola	-12.0498
erial	-12.0506
▁competitor	-12.0506
▁demolish	-12.0506
▁herzegovin	-12.0506
▁suspend	-12.0506
▁umpire	-12.0506
▁uncertain	-12.0506
▁administrative	-12.0506
▁afternoon	-12.0506
▁anchor	-12.0506
▁drove	-12.0506
▁transmission	-12.0506
▁zinc	-12.0507
▁emmy	-12.0507
▁profile	-12.0507
▁ruling	-12.0507
▁theatrical	-12.0507
▁dozen	-12.0508
▁outbreak	-12.0508
▁monkey	-12.0508
▁21	-12.0509
▁burial	-12.0516
▁withdrawal	-12.052
▁leukemia	-12.0523
▁djo	-12.0524
▁settle	-12.0526
▁magad	-12.0526
▁alleged	-12.0529
▁vera	-12.0539
▁diamond	-12.0541
▁argentine	-12.0544
▁hostil	-12.0552
ilit	-12.0564
▁identifie	-12.0568
abc	-12.0573
▁bow	-12.0575
▁sure	-12.0576
▁cluster	-12.0579
▁ensu	-12.0585
hand	-12.0587
ab	-12.0587
▁revolutionar	-12.0589
ong	-12.059
▁web	-12.0603
▁tool	-12.0605
▁carre	-12.0611
nuclea	-12.0611
bus	-12.0623
▁bones	-12.0634
▁compet	-12.0636
▁jet	-12.0649
rum	-12.0649
▁principle	-12.065
▁celebrat	-12.0653
▁lenn	-12.066
▁contribute	-12.0662
boom	-12.0662
▁loan	-12.0665
▁logic	-12.0675
▁ba	-12.0675
▁structural	-12.068
▁inspire	-12.0695
piece	-12.0701
▁pula	-12.0708
▁nave	-12.0709
▁wagner	-12.071
ã	-12.0711
▁architectural	-12.0711
▁insect	-12.0711
▁cousin	-12.0711
▁advertisement	-12.0711
▁strict	-12.0711
▁disband	-12.0711
▁biological	-12.0711
▁viet	-12.0712
▁territorial	-12.0712
▁barrier	-12.0712
▁attitude	-12.0713
▁celebration	-12.0714
▁trend	-12.0714
▁omar	-12.0719
▁tenth	-12.0721
▁authoriz	-12.0721
▁romanian	-12.0721
▁varie	-12.0722
▁crystal	-12.0727
dney	-12.0727
▁dc	-12.0732
▁phrase	-12.0732
base	-12.0733
▁finance	-12.0741
▁manufacturer	-12.0742
▁confus	-12.0745
eric	-12.0752
song	-12.0752
▁cancell	-12.0756
▁classification	-12.0768
westward	-12.078
ennesse	-12.078
ich	-12.0784
▁greg	-12.0785
▁sack	-12.08
▁tackle	-12.0802
▁sil	-12.0804
▁noble	-12.0816
▁check	-12.0818
▁hay	-12.0818
▁zho	-12.0828
▁representation	-12.0831
▁sung	-12.0831
ership	-12.0836
▁directors	-12.0853
▁rat	-12.0871
▁lion	-12.0888
▁fossil	-12.089
▁weir	-12.0894
mary	-12.0898
▁stem	-12.0899
▁spur	-12.0902
rock	-12.0905
▁convict	-12.0906
jo	-12.0908
▁bearing	-12.0909
▁decrease	-12.0914
▁condemn	-12.0916
▁export	-12.0917
▁brazil	-12.0919
▁elephant	-12.0919
▁obvious	-12.0919
▁sorraia	-12.0919
▁murray	-12.0919
▁hawaii	-12.0919
▁monster	-12.0919
▁cecil	-12.0919
▁oregon	-12.0919
▁alfred	-12.092
raaf	-12.092
▁exhibition	-12.0923
▁ign	-12.0924
▁timber	-12.0927
▁cash	-12.093
ification	-12.0932
▁yield	-12.0935
▁warren	-12.094
berry	-12.0941
▁roots	-12.0952
▁14	-12.0954
▁sad	-12.0955
ingres	-12.0958
idden	-12.0962
▁steal	-12.097
▁custom	-12.0974
▁tension	-12.0975
▁oh	-12.0984
wich	-12.0987
▁christin	-12.0993
▁platin	-12.1001
▁mobile	-12.1008
▁lincoln	-12.1008
▁walker	-12.1013
direct	-12.1016
▁expect	-12.1032
▁recurr	-12.1046
▁kir	-12.1051
des	-12.1052
nt	-12.1057
▁undern	-12.1057
rang	-12.1063
gar	-12.1067
▁doll	-12.1071
▁programm	-12.108
▁challeng	-12.1083
horn	-12.1097
▁dub	-12.1101
▁prim	-12.1107
▁radi	-12.1109
▁hobb	-12.1109
▁spaces	-12.1112
nichol	-12.1113
kye	-12.1116
▁prohibit	-12.1128
▁rhy	-12.113
▁neighbor	-12.1131
▁eshmun	-12.1132
▁explosive	-12.1132
▁provincial	-12.1132
▁synagogue	-12.1132
▁parody	-12.1132
▁widow	-12.1132
lugu	-12.1132
spot	-12.1133
▁lumber	-12.1133
▁ernest	-12.1134
▁interpretation	-12.1134
▁negotiation	-12.1134
▁nettle	-12.1135
madis	-12.1137
clusion	-12.1137
▁benja	-12.1137
trophy	-12.1137
mtav	-12.1137
▁haitian	-12.1138
▁au	-12.1138
▁organize	-12.1139
▁songwriter	-12.114
▁wanderer	-12.1143
▁loud	-12.1145
▁berlin	-12.1149
▁fold	-12.115
▁merg	-12.1153
▁poly	-12.1154
▁pounder	-12.1154
▁manual	-12.1158
di	-12.1158
▁josh	-12.1158
▁painter	-12.1161
call	-12.1161
▁marl	-12.1162
▁evans	-12.1164
umn	-12.1165
▁wake	-12.1169
▁gene	-12.1174
▁francis	-12.1176
▁clint	-12.118
▁appropriate	-12.118
rough	-12.1187
▁spin	-12.1188
▁destination	-12.1196
sio	-12.1196
common	-12.1198
grass	-12.1199
▁trunk	-12.1199
▁approv	-12.1203
maker	-12.1217
▁handle	-12.1226
▁submitt	-12.1228
▁abuse	-12.1228
▁diagnos	-12.1231
▁trapp	-12.1231
▁hearing	-12.1231
▁surger	-12.1231
▁dun	-12.1237
▁130	-12.124
▁acquire	-12.1242
▁keys	-12.1263
▁taste	-12.1264
▁westm	-12.1266
▁mrs	-12.1277
action	-12.1282
▁salt	-12.129
▁angle	-12.1291
▁grass	-12.1291
▁define	-12.1292
▁mature	-12.1292
▁smoke	-12.1298
rawn	-12.1305
▁lyrical	-12.1313
▁wrapp	-12.1314
▁bears	-12.1319
▁millenni	-12.1328
ongo	-12.1331
▁satellite	-12.1338
▁bone	-12.1342
toge	-12.1343
▁korea	-12.1344
▁belgi	-12.1346
▁altar	-12.1348
▁dimension	-12.1349
▁semifinal	-12.1349
▁intellectual	-12.1349
▁pagoda	-12.1349
▁allah	-12.1349
▁junction	-12.1349
▁766	-12.1349
▁bronze	-12.1349
▁harbor	-12.1349
▁garner	-12.1349
▁corpus	-12.1349
▁carpenter	-12.1349
▁propaganda	-12.135
▁brigg	-12.135
▁rotation	-12.135
▁collective	-12.1351
brew	-12.1351
▁bang	-12.1352
▁birthday	-12.1352
▁appointment	-12.1353
▁jardin	-12.1355
▁venture	-12.1355
isation	-12.1356
▁recognis	-12.1356
▁astronomer	-12.1357
▁restriction	-12.1358
manita	-12.136
donna	-12.1364
stage	-12.1364
▁mars	-12.137
mon	-12.1376
ung	-12.1379
▁woodland	-12.1379
▁armament	-12.1392
rid	-12.1393
bo	-12.1394
▁prett	-12.1397
▁regulation	-12.1406
▁membrane	-12.141
▁realiz	-12.1418
racing	-12.142
▁allosaur	-12.142
view	-12.1428
▁statistic	-12.1438
mother	-12.1445
▁apply	-12.1447
lower	-12.1449
lane	-12.1458
▁sit	-12.1465
▁aside	-12.1468
▁kirk	-12.1469
▁dat	-12.147
pas	-12.1471
idah	-12.1482
▁dominate	-12.1488
▁urani	-12.1493
▁competitive	-12.1495
▁ordering	-12.1495
▁maggi	-12.1495
0	-12.1496
▁proportion	-12.1499
table	-12.1504
▁putt	-12.1512
pur	-12.1515
lake	-12.1518
wiss	-12.1521
ll	-12.1522
▁sony	-12.1528
ori	-12.1528
▁fuse	-12.154
▁approache	-12.1544
ives	-12.1545
▁qualify	-12.1548
▁wheel	-12.1551
rs	-12.1552
▁impos	-12.1558
▁reader	-12.1559
tex	-12.1559
▁monk	-12.1563
▁bret	-12.1565
▁wicca	-12.1565
aso	-12.1567
▁liquid	-12.1568
▁confront	-12.157
▁immortal	-12.1571
▁singapore	-12.1571
▁charlotte	-12.1571
▁flesh	-12.1571
▁hampshire	-12.1571
▁compliment	-12.1571
▁typhoon	-12.1572
▁disturbance	-12.1572
▁illegal	-12.1572
▁compilation	-12.1572
▁gospel	-12.1572
▁partnership	-12.1572
▁regain	-12.1572
▁stump	-12.1573
▁strange	-12.1573
▁swamp	-12.1573
▁abbey	-12.1573
▁engagement	-12.1573
▁devotion	-12.1574
▁gravit	-12.1575
▁successive	-12.1575
▁approval	-12.1576
▁assess	-12.1578
▁deliberate	-12.1579
▁characteriz	-12.1582
▁alberta	-12.1583
▁survival	-12.1588
ett	-12.1589
▁arrange	-12.1589
▁grain	-12.1596
▁derive	-12.1599
arthur	-12.1604
▁reverse	-12.1607
▁wyo	-12.1609
usher	-12.1609
▁stoo	-12.1609
▁cress	-12.161
▁gut	-12.1611
ur	-12.1619
itive	-12.1624
ita	-12.1626
▁goat	-12.1631
temporari	-12.1632
▁photo	-12.1632
▁whe	-12.1633
▁fisher	-12.1639
▁devastat	-12.1642
▁eve	-12.1648
ada	-12.1651
▁pain	-12.166
▁suppress	-12.1665
pr	-12.1674
osaur	-12.1675
fa	-12.1685
▁boom	-12.1687
▁genera	-12.1698
▁wine	-12.1704
▁albert	-12.1704
▁freak	-12.1704
develop	-12.1708
▁stavan	-12.1712
▁metropolitan	-12.1717
ors	-12.1722
▁metro	-12.1724
ugh	-12.1726
▁initiat	-12.1726
▁protester	-12.1732
▁restor	-12.1733
▁blacks	-12.1737
▁kati	-12.1738
▁struggl	-12.1751
cw	-12.1754
▁descend	-12.1755
tie	-12.1764
ield	-12.1772
ied	-12.1772
▁dams	-12.1773
▁magdalen	-12.1776
howitz	-12.1781
▁mask	-12.1782
uri	-12.1792
▁balance	-12.1792
▁prospect	-12.1793
▁deck	-12.1793
tta	-12.1798
▁columbus	-12.1798
▁delegate	-12.1799
▁juvenile	-12.1799
▁sanskrit	-12.1799
▁dudley	-12.1799
▁brilliant	-12.1799
▁tribble	-12.1799
▁bennett	-12.1799
▁closure	-12.1799
▁vault	-12.1799
▁grandfather	-12.1799
▁puma	-12.1799
▁punishment	-12.1799
bourne	-12.1799
▁audio	-12.1799
▁considerabl	-12.1799
▁alliance	-12.1799
▁assassination	-12.1799
wf	-12.18
▁enlist	-12.18
▁apartment	-12.18
▁myster	-12.18
iná	-12.1802
▁iraq	-12.1802
▁percentage	-12.1804
pm	-12.1804
ancy	-12.1807
▁copy	-12.1807
▁lifetime	-12.1809
▁indoor	-12.1818
venge	-12.1818
▁sheff	-12.1826
witzer	-12.1826
▁densit	-12.1826
▁pace	-12.1831
▁chap	-12.1833
▁shield	-12.1857
▁bombing	-12.186
bed	-12.1863
▁marshal	-12.1866
▁rushing	-12.1867
stick	-12.1867
▁minorit	-12.1872
▁advi	-12.1887
▁illustrate	-12.1889
folk	-12.1891
▁poh	-12.1917
▁advocate	-12.1917
▁lanes	-12.1922
▁starter	-12.1923
▁manor	-12.1924
▁carv	-12.193
▁audition	-12.193
ju	-12.1936
gets	-12.1941
▁bowler	-12.1944
▁reactor	-12.1944
sign	-12.1945
▁examination	-12.1946
▁carriage	-12.1959
▁crab	-12.1964
thick	-12.1965
▁herd	-12.1965
▁beaut	-12.1971
▁coordinat	-12.1972
ou	-12.199
▁failing	-12.1992
mission	-12.1996
▁cong	-12.1999
opical	-12.2002
▁topic	-12.2005
▁tu	-12.2008
▁provision	-12.2014
▁evolution	-12.2025
▁hawai	-12.2027
▁aut	-12.2028
▁fundamental	-12.2031
▁sovereign	-12.2031
▁symptom	-12.2031
▁nevesinj	-12.2031
▁altarpiece	-12.2031
▁interact	-12.2031
▁neighborhood	-12.2031
▁unclear	-12.2031
▁census	-12.2032
▁overlook	-12.2033
▁interception	-12.2033
▁skeleton	-12.2034
▁beeton	-12.2036
▁acyclic	-12.2037
▁mood	-12.2037
▁synonym	-12.204
▁isotope	-12.2042
▁mineral	-12.2046
▁revis	-12.2048
▁trio	-12.205
car	-12.2053
▁staple	-12.2055
▁wider	-12.2063
▁suggestion	-12.207
eu	-12.2072
▁kath	-12.2078
ja	-12.2081
▁mason	-12.2095
▁blu	-12.2095
▁cease	-12.2105
▁penn	-12.2107
▁labor	-12.2109
▁evacuate	-12.211
▁flie	-12.2116
▁angel	-12.212
▁complicat	-12.2138
▁accommodate	-12.2139
▁consequent	-12.2146
ions	-12.2154
▁liter	-12.2157
position	-12.216
▁react	-12.2163
▁bread	-12.2166
▁illustrat	-12.2173
▁beating	-12.2183
oz	-12.2189
▁liao	-12.2194
▁chrono	-12.2195
moto	-12.2197
▁lesser	-12.2199
▁trap	-12.2201
▁blame	-12.2203
wage	-12.2203
▁fatalit	-12.2204
▁fortune	-12.2222
aki	-12.2227
▁loop	-12.2228
▁pump	-12.2232
▁investigat	-12.2236
▁bare	-12.2237
▁cart	-12.2248
▁duet	-12.2253
hall	-12.2256
▁agricultur	-12.226
▁aerodrome	-12.2269
▁irregular	-12.2269
▁kilometer	-12.2269
▁matthew	-12.2269
▁administer	-12.2269
▁gaelic	-12.2269
▁consent	-12.2269
▁utah	-12.2269
▁interstate	-12.2269
▁conversion	-12.227
▁predominant	-12.227
▁palestinian	-12.227
▁dislike	-12.227
▁reopen	-12.227
▁commentator	-12.2271
▁pursuit	-12.2271
▁terrain	-12.2271
▁violation	-12.2271
▁rhodesian	-12.2271
▁campbell	-12.2272
▁savage	-12.2273
▁belgian	-12.2273
▁row	-12.2274
▁console	-12.2274
▁cadet	-12.2274
hpa	-12.2275
▁fulfill	-12.2276
▁sitting	-12.2276
▁epic	-12.2277
▁kurt	-12.2278
▁antiquit	-12.2278
▁dubb	-12.2278
▁sailor	-12.228
▁orange	-12.2281
▁instruction	-12.2284
▁dirt	-12.2284
▁shipment	-12.2291
realm	-12.2293
▁alternate	-12.2297
▁donat	-12.23
▁roadway	-12.2304
▁amid	-12.2304
▁helen	-12.2308
ot	-12.2309
▁sora	-12.2311
etty	-12.2318
▁experimental	-12.2322
net	-12.2322
▁favorabl	-12.2332
▁rising	-12.2335
▁hence	-12.2336
▁finale	-12.2343
▁strain	-12.235
▁scorer	-12.2352
▁permissi	-12.2353
▁graduate	-12.2358
▁bur	-12.2365
che	-12.2365
esi	-12.2368
▁knights	-12.2374
▁reporter	-12.2374
ya	-12.238
▁mal	-12.2381
▁pfa	-12.2385
nik	-12.2385
▁naza	-12.2387
▁culminat	-12.2389
▁merge	-12.2395
alsa	-12.2395
▁oak	-12.2396
pen	-12.2399
▁prepar	-12.2403
▁resistan	-12.2403
▁eliminate	-12.2405
ić	-12.242
ingham	-12.2422
▁demonstrate	-12.2428
▁carbon	-12.2429
▁bio	-12.2433
name	-12.244
▁alex	-12.2452
▁inherit	-12.2453
▁similarit	-12.2459
ign	-12.2464
▁rows	-12.2468
blazer	-12.248
mark	-12.2485
lloy	-12.2485
▁button	-12.2486
ultimate	-12.2489
beth	-12.2492
row	-12.2493
▁jewel	-12.2499
▁execution	-12.2505
▁lakes	-12.2506
▁significan	-12.2508
▁derfflinger	-12.2513
▁militia	-12.2513
▁mirror	-12.2513
▁occupy	-12.2513
▁redesign	-12.2513
▁veteran	-12.2513
▁bradstreet	-12.2513
▁mitchell	-12.2513
▁distant	-12.2513
▁hungarian	-12.2513
▁joyful	-12.2513
▁rebellion	-12.2513
▁bombardment	-12.2514
▁fault	-12.2514
▁compose	-12.2514
▁vocalist	-12.2514
▁illness	-12.2515
▁mutual	-12.2515
▁announcement	-12.2517
▁phone	-12.2519
▁variable	-12.2519
thodon	-12.2519
▁cro	-12.252
▁bound	-12.2521
tone	-12.2528
▁roller	-12.2529
▁jerem	-12.2529
▁romania	-12.2529
duo	-12.2531
▁kei	-12.2535
cross	-12.2538
lines	-12.2539
▁ban	-12.2539
▁vega	-12.254
▁investigate	-12.254
cc	-12.2545
tin	-12.2553
▁permitt	-12.2555
identifi	-12.2568
▁electrical	-12.2568
▁animat	-12.2583
▁bomber	-12.2585
▁pra	-12.2588
▁yo	-12.2589
▁degro	-12.2592
▁operational	-12.2603
▁float	-12.2605
▁molecular	-12.2608
plan	-12.2618
▁battles	-12.2622
pan	-12.2626
▁chu	-12.2627
▁resum	-12.2628
▁merc	-12.2629
▁cameo	-12.2636
▁hid	-12.2637
break	-12.2637
▁marsh	-12.2638
▁jur	-12.2645
▁kong	-12.2647
▁arv	-12.2652
boat	-12.2654
▁hydrogen	-12.2656
▁enable	-12.266
nglo	-12.2672
pol	-12.2673
▁retire	-12.2675
trell	-12.2675
west	-12.2677
▁dock	-12.2679
und	-12.268
bank	-12.268
lstein	-12.2684
gud	-12.2685
gon	-12.269
ric	-12.269
▁invad	-12.2713
▁norw	-12.2721
tower	-12.2723
▁continental	-12.2728
▁climb	-12.273
▁rang	-12.2739
▁tony	-12.2739
▁steps	-12.274
walk	-12.2746
▁steadi	-12.2753
▁demon	-12.2754
chair	-12.276
▁extinct	-12.2761
▁kell	-12.2762
▁sultan	-12.2763
hor	-12.2763
▁commerc	-12.2763
▁acoustic	-12.2763
▁evident	-12.2763
▁homosexual	-12.2763
▁immigrant	-12.2763
▁inflict	-12.2763
▁obstacle	-12.2763
▁palmyrene	-12.2763
▁parachut	-12.2763
▁participant	-12.2763
▁ensemble	-12.2763
▁horror	-12.2763
▁indonesia	-12.2763
▁barbarian	-12.2763
▁borrow	-12.2763
▁chord	-12.2763
▁barrack	-12.2763
▁dependent	-12.2763
▁kickoff	-12.2764
▁commitment	-12.2764
▁uprising	-12.2764
▁halo	-12.2765
▁landscape	-12.2766
▁presbyterian	-12.2766
▁watson	-12.2767
▁rubber	-12.2767
▁trond	-12.2767
▁demonstration	-12.2767
▁illustration	-12.2767
▁dump	-12.2768
▁tokyo	-12.2768
▁7	-12.2769
▁earnest	-12.2769
▁vital	-12.277
▁ibis	-12.277
▁kyra	-12.2771
▁luck	-12.2775
lan	-12.2782
▁explorer	-12.2784
scot	-12.2785
scope	-12.2785
▁tho	-12.2794
▁dahl	-12.2799
▁neutral	-12.2805
▁graves	-12.2814
▁asian	-12.2817
▁realit	-12.2817
▁saving	-12.2823
tar	-12.2828
▁stale	-12.2834
join	-12.2835
reutz	-12.2837
▁beam	-12.2837
sumption	-12.2843
▁hir	-12.2843
▁sur	-12.2847
lessing	-12.2851
nation	-12.2854
▁magnetic	-12.2856
mo	-12.2861
▁hunter	-12.2871
eating	-12.2872
hir	-12.2875
kawa	-12.2876
▁quiet	-12.2882
finish	-12.2884
hem	-12.2889
brook	-12.2892
▁approve	-12.2894
▁welcome	-12.2902
ite	-12.2903
number	-12.2904
sen	-12.2924
▁telling	-12.293
▁bald	-12.2939
▁lift	-12.2943
hang	-12.2943
▁nick	-12.2944
▁occasion	-12.2951
▁cleve	-12.2954
▁realis	-12.2957
▁8	-12.2961
▁cancel	-12.2964
▁27	-12.2965
▁physic	-12.2971
ica	-12.2982
▁beats	-12.2989
▁maya	-12.2992
▁render	-12.2994
▁singers	-12.2999
▁jacob	-12.3001
erry	-12.3002
▁recognise	-12.3011
ioc	-12.3011
▁congregation	-12.3013
▁enabl	-12.3016
iowa	-12.3018
▁stingray	-12.3019
▁telegraph	-12.3019
▁salmon	-12.302
▁quiney	-12.302
▁variant	-12.302
▁gender	-12.302
wight	-12.302
▁parrot	-12.302
▁tommy	-12.302
▁keyboard	-12.3021
tenance	-12.3021
▁hamper	-12.3021
▁funeral	-12.3021
▁arkansas	-12.3022
▁ceratopsian	-12.3023
▁stella	-12.3023
▁decoration	-12.3023
▁austrian	-12.3023
▁clothes	-12.3024
▁reprint	-12.3024
▁trough	-12.3025
▁valid	-12.3026
▁vicin	-12.3027
egian	-12.3029
oyle	-12.3029
▁enzyme	-12.3032
▁organ	-12.3034
▁complaint	-12.3037
▁airfield	-12.3038
▁christians	-12.3039
▁angelo	-12.304
▁guild	-12.3041
▁faction	-12.3042
▁gay	-12.3044
ranks	-12.3054
dis	-12.3056
▁oxygen	-12.3056
▁chancel	-12.3057
kel	-12.3057
▁kyle	-12.3059
▁tr	-12.3074
▁evolv	-12.3075
kinner	-12.308
▁owl	-12.3086
▁liner	-12.3097
dr	-12.3098
▁rid	-12.3106
sm	-12.3109
▁examin	-12.3113
lands	-12.3116
andy	-12.3118
works	-12.312
wine	-12.3122
rank	-12.3123
▁probe	-12.3127
record	-12.313
▁debt	-12.3132
▁fitt	-12.3138
▁cyr	-12.3147
▁eu	-12.3151
▁ferry	-12.3154
▁trans	-12.3161
▁commons	-12.3161
▁peters	-12.3166
nie	-12.3171
▁lesson	-12.3182
▁rays	-12.3182
▁hollow	-12.319
trapping	-12.3199
▁suitabl	-12.3213
ative	-12.3218
▁sink	-12.3221
▁soft	-12.3228
▁stuar	-12.3237
▁patient	-12.3244
ana	-12.3245
fleet	-12.3249
▁zanzibar	-12.325
▁harr	-12.3255
bird	-12.3256
mov	-12.3257
atop	-12.3261
▁copi	-12.327
hope	-12.3274
▁instruct	-12.3274
▁steep	-12.3279
▁rains	-12.3282
▁waste	-12.3282
kön	-12.3283
▁eccleston	-12.3283
▁frequenc	-12.3283
▁holocaust	-12.3283
▁humphrey	-12.3283
▁rothschild	-12.3283
▁trigger	-12.3283
▁zagreb	-12.3283
▁celebrit	-12.3283
▁legislature	-12.3283
▁margaret	-12.3283
▁turbine	-12.3283
▁donald	-12.3283
▁ancestor	-12.3283
▁banksia	-12.3283
▁mortar	-12.3283
▁descendant	-12.3283
▁creature	-12.3284
▁speculation	-12.3284
▁guitarist	-12.3284
▁electron	-12.3286
hnc	-12.3287
▁emerge	-12.3287
▁friendship	-12.3289
▁tennis	-12.3292
▁polic	-12.3297
bracelet	-12.33
▁odd	-12.33
▁bore	-12.3308
▁stain	-12.331
main	-12.3311
▁neutrino	-12.3314
▁kate	-12.3317
▁jar	-12.3329
▁gathering	-12.3336
▁meta	-12.3337
▁mild	-12.3344
▁rä	-12.3346
▁teach	-12.3347
heir	-12.3351
▁belonging	-12.3351
▁quote	-12.3351
▁danc	-12.3353
xi	-12.3362
dick	-12.3379
▁wishe	-12.3384
uration	-12.3385
hurst	-12.3387
site	-12.3391
▁discipline	-12.3394
ay	-12.3394
lar	-12.3401
▁carlo	-12.3413
▁concentrate	-12.3418
finger	-12.3419
child	-12.3431
▁expense	-12.3434
▁pri	-12.3438
▁kit	-12.344
gb	-12.3441
▁patriarch	-12.3444
riff	-12.3444
▁khan	-12.3445
sberg	-12.3475
▁nazi	-12.3476
▁carrier	-12.348
ari	-12.348
▁stock	-12.3484
▁invite	-12.3491
▁experienc	-12.3502
▁chase	-12.3504
edoc	-12.3508
▁pool	-12.3509
wal	-12.3509
hawk	-12.3509
▁stable	-12.3515
▁disappoint	-12.3519
▁poison	-12.352
▁overwhelm	-12.352
zer	-12.3528
enous	-12.3535
▁centimet	-12.3537
powder	-12.3538
▁gam	-12.3543
▁laud	-12.3549
▁disagree	-12.3552
▁neighbour	-12.3553
▁explosion	-12.3553
▁labyrinth	-12.3553
▁telescope	-12.3553
▁gorilla	-12.3553
▁neutron	-12.3553
▁conquest	-12.3553
▁mysterious	-12.3553
▁shallow	-12.3553
▁guarantee	-12.3553
▁cutting	-12.3554
▁scholarship	-12.3555
hren	-12.3555
▁prototype	-12.3555
▁declaration	-12.3556
▁reli	-12.3557
▁ambition	-12.3557
▁sibling	-12.3557
▁spawn	-12.3558
▁decreas	-12.3559
▁wellington	-12.3559
▁brenda	-12.3563
▁striker	-12.3564
▁prayer	-12.3566
▁collector	-12.3566
lot	-12.3573
▁flock	-12.3574
▁donation	-12.3576
▁plen	-12.358
▁rivals	-12.3582
▁blend	-12.3585
noot	-12.3585
gain	-12.3587
▁sings	-12.359
enate	-12.3598
▁arch	-12.3599
▁stress	-12.3603
▁stoke	-12.3603
▁conventional	-12.362
▁listener	-12.3621
▁decid	-12.3623
▁fl	-12.3624
▁clan	-12.3624
ua	-12.3637
▁bruce	-12.3643
▁lüt	-12.3644
tina	-12.3646
▁nasa	-12.3649
ev	-12.3649
usa	-12.365
▁dust	-12.3654
fu	-12.3656
▁vegetati	-12.3659
▁plus	-12.367
▁dispatch	-12.367
▁chop	-12.3676
▁farming	-12.3678
▁enlarge	-12.3685
▁bernard	-12.3699
▁drift	-12.3703
ook	-12.3704
▁fernande	-12.3706
adela	-12.3708
▁dad	-12.3709
train	-12.3711
hen	-12.3717
test	-12.3728
▁examine	-12.3732
look	-12.3733
nick	-12.3739
deck	-12.3758
ines	-12.377
will	-12.3786
▁dealing	-12.3791
▁heading	-12.3794
▁retaliat	-12.3795
▁mon	-12.3801
assist	-12.3801
▁canning	-12.3804
hio	-12.3809
▁balls	-12.3815
tours	-12.3816
▁batt	-12.3823
elli	-12.3825
▁conquer	-12.3828
▁spark	-12.3828
▁robot	-12.383
▁subtr	-12.3831
▁wonder	-12.3831
▁leicester	-12.3831
▁explicit	-12.3831
▁pakistan	-12.3831
▁tawn	-12.3831
▁mosque	-12.3831
▁mechanism	-12.3831
▁guinea	-12.3831
▁mat	-12.3831
▁cobra	-12.3831
▁navarr	-12.3831
▁reagent	-12.3831
▁exploration	-12.3831
▁brood	-12.3831
▁decommission	-12.3831
▁diplomatic	-12.3831
▁bullet	-12.3832
▁fortification	-12.3832
▁invitation	-12.3833
lud	-12.3835
▁payment	-12.3836
▁abbot	-12.3836
▁convey	-12.3837
▁rafa	-12.3838
▁auto	-12.3842
nyi	-12.3843
altar	-12.3843
▁recreational	-12.3843
▁glider	-12.3845
▁silk	-12.3846
ography	-12.3852
▁five	-12.3854
nan	-12.3856
▁activist	-12.3858
▁collaborat	-12.3862
▁lucas	-12.3863
▁islam	-12.3868
▁peer	-12.3873
accept	-12.3875
ière	-12.3883
q	-12.3886
▁tone	-12.389
▁chronic	-12.3909
▁backing	-12.3912
▁rod	-12.3914
▁shap	-12.3917
▁ml	-12.3921
▁fled	-12.3924
▁hitt	-12.393
uda	-12.393
serie	-12.3933
▁serial	-12.3934
giel	-12.3937
ami	-12.3937
▁trinit	-12.3937
genes	-12.3942
▁bulk	-12.3953
rod	-12.3966
▁denni	-12.3971
▁performer	-12.3972
ario	-12.3974
beat	-12.3975
va	-12.398
jan	-12.3981
▁minimal	-12.3981
▁witnesse	-12.3985
▁hate	-12.399
▁devote	-12.3993
wright	-12.4
berger	-12.4
aw	-12.4001
pine	-12.4004
▁forever	-12.4004
▁cooperati	-12.4007
▁polan	-12.4012
▁beak	-12.4016
▁spott	-12.4018
▁prest	-12.4018
▁upgrade	-12.4021
▁fi	-12.4026
mund	-12.4048
later	-12.4051
rna	-12.4057
▁villain	-12.4062
▁tooth	-12.4063
anger	-12.4066
group	-12.4066
▁font	-12.4067
▁repeat	-12.4073
ok	-12.4073
16	-12.4074
▁asteroid	-12.4081
▁dodo	-12.4082
▁alfa	-12.4082
▁shut	-12.4083
marked	-12.4095
drid	-12.4095
▁recreation	-12.4104
▁scrap	-12.4104
▁ap	-12.4105
▁shrub	-12.4113
▁horizon	-12.4116
▁rockefeller	-12.4116
▁autobiograph	-12.4116
▁vulnerab	-12.4116
▁boyfriend	-12.4116
▁covenant	-12.4116
▁disorder	-12.4117
▁humor	-12.4117
▁coldrum	-12.4117
▁ronald	-12.4117
▁eleven	-12.4117
▁exile	-12.4117
▁narrator	-12.4117
▁yorkshire	-12.4118
▁mansion	-12.4119
▁mistake	-12.412
▁marge	-12.412
▁landmark	-12.4122
léti	-12.4122
▁admit	-12.4123
▁cambodian	-12.4124
▁europa	-12.4124
▁bristo	-12.4124
ani	-12.4125
▁cps	-12.4125
▁scrapp	-12.4126
dish	-12.4128
▁bonus	-12.4129
normal	-12.4129
▁attraction	-12.413
▁limb	-12.4139
order	-12.4146
▁ministers	-12.4147
▁generate	-12.4149
▁hook	-12.4151
▁fat	-12.4156
▁thanks	-12.4162
▁establishe	-12.4168
pe	-12.4169
▁bosto	-12.4172
erine	-12.4173
pop	-12.4174
▁quantit	-12.418
▁leed	-12.4185
▁distribute	-12.4189
▁westward	-12.4192
▁montre	-12.4193
▁eastward	-12.4193
▁handed	-12.4195
cat	-12.4197
▁joy	-12.4197
▁conscious	-12.42
▁lo	-12.4201
▁immigrati	-12.4203
▁indolen	-12.4205
eeth	-12.4209
▁dropping	-12.4218
▁marlboro	-12.4228
▁sacrifice	-12.4229
▁rape	-12.4229
▁disturb	-12.4229
▁fil	-12.423
▁intelligent	-12.423
paul	-12.4232
sox	-12.4237
▁ann	-12.4237
▁acknowledg	-12.4239
sb	-12.4244
▁sketch	-12.4247
scons	-12.4251
▁pyramid	-12.4255
▁wright	-12.4258
▁fusion	-12.4265
ations	-12.4267
ini	-12.4268
▁deer	-12.427
▁moist	-12.4271
ssex	-12.4279
▁knight	-12.4284
▁reward	-12.4284
▁galli	-12.4287
▁hunters	-12.4291
▁bands	-12.4297
rent	-12.43
size	-12.4302
▁oral	-12.431
▁mcel	-12.4311
uck	-12.4318
▁cooper	-12.4318
▁pet	-12.4319
gal	-12.433
▁treasure	-12.4332
▁reviv	-12.4335
rat	-12.434
▁pc	-12.4341
▁induct	-12.435
elg	-12.4354
claren	-12.4365
▁justin	-12.4374
▁dispers	-12.4379
▁atom	-12.438
▁mauri	-12.4381
▁gra	-12.4382
▁horn	-12.4383
ffman	-12.4383
▁idol	-12.4388
▁broadwa	-12.4391
▁unna	-12.4394
mouli	-12.4396
▁habit	-12.4398
stabilit	-12.4402
unit	-12.4405
▁stake	-12.4405
lain	-12.4407
▁imbu	-12.4407
▁grammar	-12.441
▁alphabet	-12.441
▁conjuncti	-12.441
▁brigadier	-12.4411
▁exterior	-12.4411
▁genuine	-12.4411
▁faulkn	-12.4411
▁nevada	-12.4411
▁scenario	-12.4411
▁copper	-12.4411
▁corridor	-12.4411
▁motif	-12.4411
▁neolithic	-12.4411
▁silent	-12.4411
▁desperate	-12.4411
▁civilization	-12.4411
▁lifestyle	-12.4411
▁grasse	-12.4411
▁navigation	-12.4411
▁turkey	-12.4411
▁leban	-12.4412
▁rejoin	-12.4412
▁innocent	-12.4412
▁drill	-12.4412
▁puer	-12.4413
▁burrow	-12.4414
▁gale	-12.4415
marie	-12.4415
▁naked	-12.4416
▁flame	-12.4421
▁chair	-12.4422
▁brutal	-12.4424
▁dies	-12.4424
▁alarm	-12.4425
▁placing	-12.4432
africa	-12.4433
▁updat	-12.4433
▁advis	-12.4434
▁li	-12.4436
▁stew	-12.4442
▁onward	-12.445
▁customer	-12.4452
▁translat	-12.4456
▁rebuild	-12.4456
ono	-12.4464
▁sanctuar	-12.4465
gram	-12.4475
▁hurt	-12.4478
chan	-12.4481
▁mh	-12.4485
▁robins	-12.4485
court	-12.4486
holes	-12.4491
kind	-12.4496
om	-12.45
▁log	-12.4506
▁sec	-12.4507
cher	-12.4507
chen	-12.4512
▁harmon	-12.4516
▁br	-12.4516
▁kaif	-12.4518
▁culle	-12.4519
act	-12.4529
▁kids	-12.453
ón	-12.453
▁perception	-12.4543
▁persuade	-12.4548
both	-12.4552
▁taxi	-12.4553
▁berh	-12.4557
▁complement	-12.4559
▁coaster	-12.456
▁trader	-12.4564
mar	-12.4567
▁million	-12.4579
▁crop	-12.458
ade	-12.4584
▁acknowledge	-12.4585
▁shim	-12.4588
▁sq	-12.4593
▁22	-12.4597
▁kea	-12.4617
▁partners	-12.4619
▁seeming	-12.462
ue	-12.4622
▁symphon	-12.4625
▁inaugura	-12.4637
▁screens	-12.4638
oh	-12.4638
manuel	-12.464
▁mg	-12.4646
arm	-12.4651
▁lad	-12.4652
▁michel	-12.4659
▁solve	-12.466
▁relieve	-12.466
▁retail	-12.467
odes	-12.4674
john	-12.4677
owing	-12.4679
▁survivor	-12.4682
▁tee	-12.4685
mak	-12.4688
▁entertain	-12.469
▁fatal	-12.4694
▁vista	-12.4697
▁ultra	-12.4698
mp	-12.4699
▁olive	-12.47
▁corbet	-12.4705
stop	-12.4706
▁glas	-12.4707
▁crusade	-12.4708
▁denomination	-12.4708
austro	-12.4709
▁langu	-12.4713
▁excess	-12.4713
▁flotilla	-12.4714
▁gabriel	-12.4714
▁scratch	-12.4714
▁telephone	-12.4714
▁prevail	-12.4714
▁mkhed	-12.4714
▁definite	-12.4714
▁limestone	-12.4714
▁signature	-12.4714
posed	-12.4714
▁favourite	-12.4714
sulli	-12.4714
▁agaric	-12.4714
▁humanitarian	-12.4714
▁screenplay	-12.4714
▁arcade	-12.4715
▁petition	-12.4715
▁attendance	-12.4715
▁deployment	-12.4716
▁careful	-12.4718
▁uncle	-12.4718
▁expressway	-12.4719
▁div	-12.4719
▁rumor	-12.4719
ìn	-12.4719
▁tear	-12.472
chuck	-12.472
▁summon	-12.4721
▁battlefield	-12.4721
▁leather	-12.4722
▁consult	-12.4724
▁pulp	-12.4725
▁lab	-12.4725
polis	-12.4726
▁foul	-12.4726
dae	-12.4726
▁reflection	-12.4727
▁practical	-12.4729
▁judo	-12.473
▁romance	-12.4731
shot	-12.4737
▁colombia	-12.4737
▁indirect	-12.4739
▁surge	-12.474
▁gil	-12.4743
▁incomplete	-12.4747
▁kn	-12.4748
math	-12.4751
▁andrea	-12.4754
▁jimm	-12.4757
▁devin	-12.476
▁tactical	-12.4761
las	-12.4761
▁mytholog	-12.4765
pro	-12.4766
▁noise	-12.4771
ira	-12.4776
▁emphasize	-12.4778
▁funn	-12.4781
▁exclud	-12.4781
media	-12.4782
band	-12.479
▁atp	-12.4796
▁comet	-12.4797
wild	-12.4803
ap	-12.4807
▁isle	-12.4807
cheer	-12.4809
▁upgrad	-12.4818
▁root	-12.4819
burg	-12.4822
fight	-12.4824
▁proto	-12.4826
▁seiz	-12.4831
▁paran	-12.4832
tu	-12.4834
▁seed	-12.4839
▁literal	-12.4839
▁cannon	-12.4841
▁coat	-12.4847
erland	-12.4854
fold	-12.4856
games	-12.4859
▁matur	-12.4865
som	-12.4867
dean	-12.4868
▁neil	-12.4868
ov	-12.4868
ene	-12.487
▁mall	-12.4873
▁municipalit	-12.4878
ldest	-12.4881
▁wy	-12.4883
▁nominate	-12.4883
▁enforce	-12.4885
supply	-12.4888
▁flaw	-12.4888
osa	-12.4893
person	-12.49
aux	-12.4903
▁precise	-12.4908
▁glen	-12.4909
▁seize	-12.492
ise	-12.4934
▁nice	-12.4945
anton	-12.4946
▁harsh	-12.4948
▁quot	-12.4948
second	-12.4952
▁revers	-12.4953
▁bolt	-12.4958
▁insert	-12.496
▁tombs	-12.4961
graph	-12.4972
gamer	-12.4974
▁enhance	-12.4974
▁hide	-12.4985
▁beds	-12.4988
▁outfit	-12.4988
thesis	-12.4995
▁tier	-12.5006
▁gange	-12.5015
intend	-12.5015
leans	-12.5019
▁clergy	-12.5022
▁flee	-12.5025
▁pry	-12.5026
▁compromise	-12.5026
▁hygrometricu	-12.5026
▁kōsaku	-12.5026
▁mahesh	-12.5026
▁turnpike	-12.5026
▁uyghur	-12.5026
▁ceiling	-12.5026
▁intervention	-12.5026
▁swift	-12.5026
▁coalition	-12.5026
▁rendition	-12.5026
▁comprehensive	-12.5026
▁proclaim	-12.5026
▁external	-12.5026
▁hymn	-12.5026
▁mvp	-12.5026
▁philippine	-12.5027
▁elite	-12.5028
▁butterfl	-12.5028
▁drummer	-12.503
▁seventeen	-12.5031
▁jenn	-12.5031
▁liberty	-12.5031
▁solv	-12.5031
▁participation	-12.5031
▁outlet	-12.5032
▁fez	-12.5033
ck	-12.5037
▁strikeout	-12.5037
▁casemate	-12.5037
▁boiler	-12.5038
▁barrel	-12.5038
▁rocket	-12.504
▁ports	-12.504
▁bhairava	-12.5044
▁precipitati	-12.5048
▁thai	-12.5048
▁corresponding	-12.5049
alph	-12.5053
tact	-12.5058
foot	-12.5061
▁jose	-12.5062
screen	-12.5068
▁therap	-12.5071
urn	-12.5074
▁sas	-12.5076
▁qi	-12.5077
former	-12.5077
▁vs	-12.5078
lett	-12.5089
lor	-12.509
▁guin	-12.509
▁russel	-12.509
bbie	-12.5091
▁demo	-12.5092
▁smart	-12.5102
▁ignor	-12.5104
▁proceeding	-12.5106
▁spike	-12.5109
▁aisle	-12.511
▁separat	-12.5126
cia	-12.5128
▁rectang	-12.5133
▁brain	-12.5135
▁relate	-12.5135
▁wet	-12.5139
▁grave	-12.5139
▁blockade	-12.514
sia	-12.5143
▁parasite	-12.5146
science	-12.5147
▁relat	-12.5148
▁jo	-12.5148
rom	-12.5156
▁mills	-12.5165
▁interrupt	-12.5167
▁bypass	-12.5168
▁antoni	-12.517
▁highland	-12.5173
nic	-12.5183
ole	-12.5187
▁riot	-12.5189
cent	-12.5196
▁wire	-12.5196
river	-12.5197
du	-12.5199
▁resolve	-12.5199
▁accidental	-12.5204
mal	-12.5205
▁explor	-12.521
scribe	-12.5211
▁las	-12.5217
▁leigh	-12.5217
▁tune	-12.5219
kang	-12.522
▁retriev	-12.5223
▁salar	-12.523
describ	-12.5233
▁mcc	-12.5235
fc	-12.5236
▁displac	-12.5242
▁mantell	-12.5248
plus	-12.5249
ms	-12.5253
▁prefer	-12.5254
▁roost	-12.5255
▁sue	-12.5256
title	-12.5258
▁backward	-12.527
▁claw	-12.5271
▁companion	-12.5303
▁confiden	-12.5307
bly	-12.5322
▁mast	-12.5322
lix	-12.5326
▁transmitt	-12.5339
▁harvest	-12.534
▁kid	-12.5342
▁feud	-12.5343
▁qualifi	-12.5343
▁austria	-12.5344
▁qedar	-12.5348
creta	-12.5349
oli	-12.5349
▁abundant	-12.5349
▁caliber	-12.5349
▁commodore	-12.5349
▁solitaire	-12.5349
▁vishnu	-12.5349
▁enormous	-12.5349
▁nephew	-12.5349
▁ornament	-12.5349
▁meteorological	-12.5349
▁raymond	-12.5349
▁commence	-12.5349
▁secular	-12.5349
▁counterpart	-12.5349
▁fixture	-12.5349
▁foster	-12.5349
▁virtue	-12.535
▁random	-12.535
▁nineteen	-12.535
▁outcome	-12.535
▁unrest	-12.5351
▁mathematic	-12.5351
▁klein	-12.5351
▁frontier	-12.5352
▁litter	-12.5352
▁uneven	-12.5354
▁symbolic	-12.5357
▁reminiscen	-12.536
▁chest	-12.5363
▁hump	-12.5365
▁hong	-12.5366
arah	-12.5366
▁yugoslavia	-12.5367
▁migration	-12.5368
▁muscle	-12.5371
▁crow	-12.5374
▁portrayal	-12.5374
▁arika	-12.5374
▁hint	-12.5377
▁megalith	-12.538
▁revision	-12.5382
▁stalk	-12.5383
▁warship	-12.5383
gua	-12.5383
▁overwhelming	-12.5388
▁underst	-12.5394
▁speculate	-12.5396
▁calm	-12.5397
▁lowland	-12.54
ret	-12.54
▁carr	-12.5401
▁velocit	-12.5405
ignment	-12.5424
▁leak	-12.5425
▁urg	-12.543
▁annal	-12.5441
▁particle	-12.5444
dh	-12.5445
pin	-12.5445
oven	-12.5453
roth	-12.5456
▁legac	-12.5459
▁opt	-12.546
meter	-12.5461
shi	-12.5462
▁sri	-12.5464
▁gardner	-12.5466
nburg	-12.5475
yang	-12.548
inai	-12.5485
▁ordinar	-12.5491
▁license	-12.5501
▁phenomen	-12.5508
▁troop	-12.5512
▁texture	-12.5512
tus	-12.5513
▁lamp	-12.5514
▁guards	-12.5517
▁banks	-12.552
▁da	-12.5526
kan	-12.5527
▁nurser	-12.5536
acy	-12.5538
raja	-12.5543
▁binar	-12.5544
jing	-12.5554
▁barne	-12.5555
▁pursu	-12.5565
▁gul	-12.5565
▁astronomica	-12.5566
▁vicar	-12.5572
▁nh	-12.5573
▁conifer	-12.5574
sea	-12.5575
▁ascend	-12.5577
▁fran	-12.5579
publish	-12.5588
ax	-12.5588
▁radar	-12.5588
nin	-12.5589
▁fo	-12.559
keeper	-12.5593
kau	-12.5594
att	-12.5603
▁liz	-12.5604
▁functional	-12.5611
▁aggregate	-12.5611
ara	-12.5616
stem	-12.5616
chart	-12.5616
hart	-12.5617
track	-12.563
▁patch	-12.563
nois	-12.5634
▁jai	-12.5647
oval	-12.5649
▁proxim	-12.566
croft	-12.5661
▁gao	-12.5665
▁ramp	-12.5671
ried	-12.5672
▁remind	-12.5673
▁frankl	-12.5678
▁marrie	-12.5678
abad	-12.568
▁archipelago	-12.5682
▁gendarme	-12.5682
▁guerrilla	-12.5682
▁jealous	-12.5682
▁neglect	-12.5682
▁coffee	-12.5682
▁facult	-12.5682
▁viaduct	-12.5682
▁licence	-12.5682
▁panzer	-12.5682
▁fierce	-12.5682
▁hemisphere	-12.5683
▁routine	-12.5683
▁stela	-12.5683
▁glee	-12.5683
48	-12.5683
quinn	-12.5683
▁remake	-12.5683
▁terrace	-12.5683
▁resort	-12.5683
▁sediment	-12.5684
zow	-12.5684
▁confrontation	-12.5684
▁bunker	-12.5684
▁monaster	-12.5685
▁detective	-12.5685
▁comedian	-12.5686
▁plumage	-12.5688
▁unexpected	-12.5688
▁extraordinar	-12.569
▁operator	-12.569
▁ensur	-12.569
▁relocat	-12.5691
▁rok	-12.5692
accessib	-12.5692
▁relay	-12.5692
gue	-12.5692
▁pete	-12.5693
▁gabba	-12.5693
▁ghat	-12.5701
▁q	-12.5705
▁collaps	-12.5706
case	-12.5706
tor	-12.5707
▁rocks	-12.5708
▁sidon	-12.5708
bone	-12.5713
▁toleran	-12.5717
▁admir	-12.5718
▁corpse	-12.5719
▁infect	-12.5719
▁jail	-12.572
▁domain	-12.5727
desh	-12.573
▁bent	-12.5731
▁boot	-12.5732
▁inventor	-12.5741
▁pin	-12.5744
▁terminal	-12.5754
lift	-12.5755
▁prompting	-12.576
▁nationalist	-12.576
continent	-12.5765
▁poetic	-12.5766
original	-12.5768
▁descent	-12.577
▁baptist	-12.5777
▁shortage	-12.5779
aria	-12.5781
▁tough	-12.5794
▁ambush	-12.58
▁pitts	-12.5802
▁two	-12.5808
ps	-12.5808
▁activat	-12.5812
ph	-12.5813
▁coincide	-12.5823
▁readi	-12.5831
tai	-12.5831
tender	-12.5849
▁kw	-12.5851
▁finger	-12.5854
aaf	-12.5856
▁cheap	-12.5856
ín	-12.5859
▁fringe	-12.5862
▁resume	-12.5871
▁sweep	-12.5873
▁net	-12.5875
▁excit	-12.5875
▁chin	-12.5883
▁bri	-12.5886
▁rhode	-12.589
ned	-12.5893
▁arise	-12.59
ristan	-12.591
▁linear	-12.5914
version	-12.5918
▁cable	-12.5926
▁dri	-12.5928
▁lightn	-12.5931
▁raw	-12.5931
▁four	-12.5932
▁indu	-12.5941
waters	-12.5944
met	-12.5946
▁chemist	-12.5947
there	-12.5954
corn	-12.5958
▁sum	-12.5961
mani	-12.5964
▁mel	-12.5967
▁listing	-12.5974
▁nca	-12.5974
▁bre	-12.5977
▁criticize	-12.598
inke	-12.5984
vig	-12.5984
▁translate	-12.5994
mine	-12.5998
▁musc	-12.6002
ovil	-12.6007
ovac	-12.601
appen	-12.6011
leaf	-12.6011
▁sank	-12.6011
▁triumph	-12.6015
poles	-12.6021
▁syria	-12.6023
▁brack	-12.6024
llosa	-12.6026
ơn	-12.6027
▁abolish	-12.6027
▁boulevard	-12.6027
▁intensify	-12.6027
▁kaimanawa	-12.6027
▁remote	-12.6027
▁blind	-12.6027
▁nuskh	-12.6027
▁horizontal	-12.6027
▁kitchen	-12.6027
▁thorough	-12.6027
▁demographic	-12.6027
▁incursion	-12.6027
▁boulder	-12.6027
▁marble	-12.6027
▁darwin	-12.6027
▁ferrari	-12.6027
▁framework	-12.6028
▁estuar	-12.6028
▁intimate	-12.6028
▁panther	-12.6029
▁progressive	-12.6029
▁debri	-12.603
▁mariah	-12.603
ept	-12.603
die	-12.603
▁alert	-12.6031
▁matern	-12.6031
▁torpedoe	-12.6031
▁rice	-12.6032
▁tzu	-12.6032
▁specialist	-12.6033
again	-12.6033
▁amylostere	-12.6034
▁cream	-12.6034
▁assyrian	-12.6034
okee	-12.6036
▁vic	-12.6036
▁drought	-12.6036
ek	-12.6036
▁recommendation	-12.6036
▁coastline	-12.604
▁cats	-12.604
dining	-12.6042
▁stuff	-12.6042
▁plantation	-12.6044
▁affection	-12.6044
hrie	-12.6044
safe	-12.6049
forth	-12.6049
arden	-12.6051
thy	-12.6058
▁atomic	-12.6058
▁lamb	-12.6061
▁spokes	-12.6062
▁keen	-12.6074
▁vertic	-12.6076
▁instrumental	-12.6079
▁tyre	-12.608
▁terribl	-12.6081
rounds	-12.6082
hai	-12.6082
▁osten	-12.6085
continental	-12.6087
liver	-12.6088
▁perceive	-12.6088
▁transcription	-12.609
▁mini	-12.609
real	-12.6094
▁swing	-12.6095
▁mora	-12.6102
▁thread	-12.6103
▁spelling	-12.6103
itz	-12.6105
▁meat	-12.6107
▁toxic	-12.6107
▁tong	-12.6111
▁spy	-12.6111
▁scots	-12.6113
▁themed	-12.6118
riu	-12.6119
lair	-12.6124
tra	-12.6125
▁averag	-12.613
vis	-12.613
mw	-12.6133
omura	-12.6133
such	-12.6134
oid	-12.6142
▁conceiv	-12.6143
▁periodical	-12.6148
nae	-12.6154
▁throat	-12.6155
▁calculat	-12.617
▁ignore	-12.6174
▁merri	-12.6175
▁bi	-12.6176
▁dressing	-12.6177
▁nuclei	-12.6179
bee	-12.6181
▁julian	-12.6182
▁itv	-12.619
▁imaginati	-12.6194
verst	-12.6195
liam	-12.6198
maine	-12.6198
▁concentrat	-12.6204
chase	-12.6215
▁bor	-12.6215
▁subordinate	-12.6218
▁slate	-12.6221
▁sean	-12.6221
ut	-12.6227
▁devil	-12.6227
▁dreams	-12.6228
▁envelope	-12.623
chel	-12.6233
▁deny	-12.6241
▁moro	-12.6247
anne	-12.6255
▁shoe	-12.6262
▁sheet	-12.6265
▁cull	-12.6267
▁chao	-12.6268
rus	-12.627
▁goff	-12.6276
00	-12.6277
▁empt	-12.6278
▁fann	-12.6281
gi	-12.6296
▁christoph	-12.6303
▁captiv	-12.6306
near	-12.6312
eur	-12.6314
tage	-12.6314
▁crim	-12.6315
then	-12.6316
▁nine	-12.6324
▁alger	-12.6325
mpson	-12.6333
▁carmel	-12.6334
▁focuse	-12.6335
▁finn	-12.6335
▁permit	-12.635
▁exceed	-12.6351
reach	-12.6351
▁anne	-12.6356
▁wallac	-12.6359
▁golf	-12.6364
marily	-12.6369
▁prefect	-12.637
▁wikipedia	-12.6373
▁organic	-12.6377
▁campbel	-12.6379
akim	-12.6382
▁confluence	-12.6384
▁ferdinand	-12.6384
▁repertoire	-12.6384
▁triangle	-12.6384
▁napoleon	-12.6384
▁hemmema	-12.6384
▁correspondence	-12.6384
▁fluid	-12.6384
▁counterattack	-12.6384
▁concurrent	-12.6384
▁swallow	-12.6384
▁collision	-12.6384
▁unesco	-12.6384
▁saxon	-12.6384
▁amendment	-12.6384
▁judith	-12.6384
▁stunt	-12.6385
▁premise	-12.6385
▁missile	-12.6386
▁output	-12.6386
▁attendant	-12.6386
▁crucial	-12.6387
▁divert	-12.6387
▁malaysia	-12.6387
▁cheese	-12.6388
▁geological	-12.6389
▁pesh	-12.6389
▁overcome	-12.6389
▁chip	-12.6389
▁mistaken	-12.6389
▁replay	-12.639
▁loft	-12.6391
▁accusation	-12.6391
▁incredibl	-12.6392
▁lorenz	-12.6392
▁grassland	-12.6394
▁beau	-12.6395
▁rookie	-12.6397
▁gregor	-12.6398
▁supervisor	-12.6399
▁rein	-12.6401
gomer	-12.6402
▁spann	-12.6412
▁accompanie	-12.6415
▁surpass	-12.6419
▁rector	-12.6422
▁limitation	-12.6423
▁intentional	-12.6426
▁pitt	-12.6428
▁25	-12.6436
grave	-12.6437
lando	-12.6441
▁steer	-12.6442
▁mines	-12.6444
ease	-12.6445
▁fever	-12.6448
ganga	-12.6455
▁leap	-12.6455
▁stick	-12.6456
▁buff	-12.6456
▁imp	-12.6461
▁frontal	-12.6462
▁massacre	-12.6467
nautic	-12.6469
fried	-12.6469
north	-12.6469
▁tempo	-12.6475
▁springs	-12.6479
hu	-12.648
▁glor	-12.6491
▁loyal	-12.6492
▁racial	-12.6494
▁censor	-12.6498
arian	-12.6501
▁quit	-12.6505
▁leo	-12.6507
upper	-12.6507
▁mil	-12.6508
▁antholog	-12.6511
won	-12.6516
▁berm	-12.6518
mart	-12.6518
▁fortress	-12.652
sboro	-12.6528
▁mate	-12.6536
▁sw	-12.6537
▁anger	-12.6538
▁manufacture	-12.6541
▁killer	-12.655
ellis	-12.6556
▁presum	-12.6559
▁opin	-12.6562
▁refuge	-12.6562
▁arabia	-12.6568
▁karl	-12.6572
▁bibl	-12.6584
▁informal	-12.6585
turn	-12.6588
atra	-12.6593
▁camel	-12.66
▁cu	-12.6601
▁icon	-12.6605
▁cuba	-12.6611
rowle	-12.6613
pi	-12.6614
mu	-12.6617
▁cosm	-12.6619
▁spine	-12.6621
▁intermedia	-12.6623
▁dig	-12.6624
rain	-12.6626
▁día	-12.6639
chobe	-12.6642
▁nichols	-12.6643
sibilit	-12.6648
▁stiff	-12.6657
▁chen	-12.6657
▁sim	-12.6661
staff	-12.667
hot	-12.6672
nix	-12.6674
witt	-12.6678
twal	-12.6684
▁pe	-12.6684
▁kiss	-12.6689
▁wreck	-12.6692
▁dug	-12.6693
▁speculat	-12.67
cap	-12.6716
▁exceptional	-12.6716
▁commit	-12.6719
▁dev	-12.6722
aire	-12.6724
▁posts	-12.6725
▁pose	-12.6732
▁cow	-12.6742
▁scream	-12.6744
och	-12.6745
▁caps	-12.6746
gland	-12.6746
▁maneuver	-12.6747
say	-12.6748
▁contradict	-12.6748
▁lithuania	-12.6749
▁overlap	-12.675
▁intercept	-12.6751
▁bug	-12.6751
▁sha	-12.6752
significant	-12.6753
liberation	-12.6754
▁commenc	-12.6754
▁recipe	-12.6754
▁unfortunate	-12.6754
▁bernissart	-12.6754
▁anselm	-12.6754
▁millimeter	-12.6754
▁theoretical	-12.6754
▁syādvāda	-12.6754
▁conceal	-12.6754
▁memoir	-12.6754
▁bootleg	-12.6754
▁hiatus	-12.6754
▁decisive	-12.6754
cairn	-12.6754
▁steamboat	-12.6754
▁accent	-12.6754
▁fumble	-12.6755
▁consultant	-12.6755
▁lawsuit	-12.6755
▁discard	-12.6755
▁stanza	-12.6755
▁courage	-12.6755
▁brazilian	-12.6755
▁zhang	-12.6755
▁partition	-12.6755
▁victorious	-12.6756
▁buddhist	-12.6756
▁hospitaller	-12.6756
▁leinster	-12.6756
▁breakdown	-12.6756
▁hairstyle	-12.6756
▁bronco	-12.6756
▁weakness	-12.6757
▁luminosit	-12.6757
▁forth	-12.6757
▁allegation	-12.6757
▁drown	-12.6757
▁pegg	-12.6757
▁excellent	-12.6757
tan	-12.6758
▁uncover	-12.6758
▁newfound	-12.6758
▁wheat	-12.676
▁trademark	-12.6761
▁innovation	-12.6763
mind	-12.6764
▁pol	-12.6765
▁todd	-12.677
▁tract	-12.677
cha	-12.6771
▁moth	-12.6772
▁charan	-12.6772
logy	-12.6772
apf	-12.6774
▁prose	-12.6774
▁consumer	-12.6778
▁twist	-12.678
egu	-12.6781
▁pray	-12.6783
flux	-12.6784
▁albi	-12.6786
▁cope	-12.6787
hl	-12.6787
laine	-12.6787
▁adrian	-12.6787
cko	-12.6788
▁inc	-12.679
▁analyse	-12.6795
▁carving	-12.6795
pad	-12.6796
▁ironic	-12.6798
▁normand	-12.68
sistance	-12.6805
▁larr	-12.6813
▁slipp	-12.6816
bal	-12.6817
ingrid	-12.6819
▁robin	-12.6824
national	-12.6826
▁waterway	-12.6827
▁commemorat	-12.6828
china	-12.6835
lore	-12.6835
▁christophe	-12.6839
▁nose	-12.684
▁barbar	-12.6841
▁groove	-12.6845
arn	-12.6847
▁stans	-12.6847
▁dancer	-12.6848
tiny	-12.6848
▁venom	-12.685
lighter	-12.6851
related	-12.6851
mel	-12.6855
▁conception	-12.6862
▁besieg	-12.6864
▁wash	-12.6865
▁fires	-12.6865
▁slot	-12.6867
team	-12.6869
▁invest	-12.6874
▁swede	-12.6875
rí	-12.6875
▁repli	-12.6876
lac	-12.6877
▁allocat	-12.688
▁adjust	-12.6887
ray	-12.689
een	-12.6898
▁janet	-12.6904
tooth	-12.6905
▁serge	-12.6906
▁depress	-12.6908
▁poster	-12.691
▁pun	-12.6911
▁angr	-12.6914
rely	-12.6917
▁populat	-12.6919
▁lenno	-12.6919
standing	-12.6919
wick	-12.692
▁stag	-12.6926
▁joan	-12.6927
▁melt	-12.6928
▁familiar	-12.6928
▁hub	-12.6929
▁sociolog	-12.6931
▁specializ	-12.6934
▁undertake	-12.6935
▁bloom	-12.6937
istan	-12.6938
dragon	-12.6945
▁pleas	-12.6948
pass	-12.6949
▁stepp	-12.6952
▁slip	-12.6952
▁meyer	-12.6954
▁notion	-12.6956
ike	-12.6959
▁bold	-12.6967
▁discusse	-12.6968
▁commemorate	-12.6969
▁pla	-12.698
▁suite	-12.6984
medu	-12.6988
hon	-12.7002
atic	-12.7003
open	-12.7005
▁cons	-12.7007
▁consum	-12.701
▁vol	-12.7014
tant	-12.7015
culture	-12.7027
▁genes	-12.7032
▁gran	-12.7034
▁footballer	-12.7035
▁citi	-12.7035
▁breath	-12.7043
found	-12.7049
nant	-12.705
▁bitter	-12.7057
distinguish	-12.7061
▁nok	-12.7062
iers	-12.7064
▁cage	-12.7067
▁beer	-12.7073
▁traveler	-12.7076
▁troubles	-12.7076
rphy	-12.7083
glass	-12.7083
dolen	-12.7086
▁compil	-12.7096
▁facilitate	-12.7102
zzo	-12.7103
tolen	-12.7105
emble	-12.7108
▁jeremi	-12.7114
su	-12.7116
▁bite	-12.7116
▁fade	-12.7117
▁appointe	-12.7125
▁carnival	-12.7127
▁tribe	-12.7129
tones	-12.7133
▁amphibi	-12.7135
▁relax	-12.7138
▁addict	-12.7138
▁brunswick	-12.7139
▁loyalsock	-12.7139
▁ordnance	-12.7139
▁pseudonym	-12.7139
▁scandinavia	-12.7139
▁reassign	-12.7139
▁sporadic	-12.7139
▁recount	-12.7139
▁explanation	-12.7139
▁lodge	-12.7139
▁moritz	-12.7139
▁savannah	-12.7139
▁cruiserweight	-12.7139
▁spectator	-12.7139
▁vague	-12.7139
▁jenkin	-12.7139
▁comparative	-12.7139
▁northumb	-12.7139
▁galax	-12.7139
▁satire	-12.714
▁bergen	-12.714
▁betray	-12.714
▁evacuation	-12.714
tanya	-12.714
▁peaceful	-12.714
▁soap	-12.7141
due	-12.7141
▁servant	-12.7141
▁outlaw	-12.7141
▁thailand	-12.7141
▁invention	-12.7142
▁resignation	-12.7142
▁stallion	-12.7142
▁strait	-12.7142
▁consolidat	-12.7143
▁slea	-12.7143
▁mrna	-12.7144
▁conviction	-12.7144
avt	-12.7144
▁lithuanian	-12.7144
▁wilfri	-12.7145
▁installation	-12.7145
▁boca	-12.7145
▁expectation	-12.7146
▁prestig	-12.7146
grove	-12.7147
▁pour	-12.7148
▁nasal	-12.7149
▁colonist	-12.7151
▁distinction	-12.7152
▁doors	-12.7154
cox	-12.7154
▁layout	-12.7155
randy	-12.7156
▁trait	-12.7162
▁intent	-12.7163
▁shout	-12.7169
▁marker	-12.7172
▁davies	-12.7173
▁sighting	-12.7175
hư	-12.7177
▁burst	-12.7185
▁purpl	-12.7185
uzzi	-12.7186
▁gib	-12.7186
divid	-12.7191
▁mutin	-12.7195
▁boo	-12.7203
shara	-12.7205
chandra	-12.7207
shift	-12.7209
▁jenni	-12.7218
▁pam	-12.7222
ali	-12.7225
▁dull	-12.7228
ack	-12.7231
uenos	-12.7234
▁contrar	-12.7235
ib	-12.7236
rap	-12.724
link	-12.724
▁angles	-12.7245
▁ruth	-12.7249
▁papa	-12.7253
▁forge	-12.7255
▁funk	-12.7258
▁sect	-12.7261
▁confident	-12.7263
▁circular	-12.7266
▁pocket	-12.7268
▁comfort	-12.7269
slam	-12.7272
▁container	-12.7276
reserved	-12.7277
▁resembl	-12.7279
mention	-12.7282
▁confusi	-12.7285
relian	-12.7286
ox	-12.7289
▁abundance	-12.7296
people	-12.7297
bul	-12.7311
▁cliff	-12.7313
ō	-12.7319
get	-12.732
▁quest	-12.7321
▁cai	-12.733
▁harsha	-12.7339
pes	-12.7339
rim	-12.7341
take	-12.7342
▁refugee	-12.7343
phase	-12.7348
▁migrat	-12.7349
ving	-12.7362
memorial	-12.7365
▁loyalt	-12.7369
▁tutor	-12.7371
▁hurdle	-12.7373
edication	-12.7377
▁strat	-12.7379
▁hatch	-12.7384
caa	-12.7385
unity	-12.7387
ain	-12.7388
▁seasonal	-12.7392
▁vette	-12.7392
▁blast	-12.74
cane	-12.7403
arly	-12.7407
gow	-12.7416
militar	-12.7419
pointing	-12.7423
▁capp	-12.7429
▁patric	-12.7429
▁breeder	-12.7429
▁vari	-12.7436
▁kun	-12.7438
▁curtis	-12.7441
stor	-12.745
▁hond	-12.7451
▁easter	-12.7458
dan	-12.7459
hero	-12.7484
▁treb	-12.7485
ceo	-12.7487
▁twel	-12.7488
▁utiliz	-12.749
▁invent	-12.749
▁gentle	-12.7494
tree	-12.7495
▁bla	-12.7498
▁adria	-12.7504
▁hamil	-12.7505
▁elevat	-12.7505
▁builder	-12.7512
▁tenu	-12.7517
▁farms	-12.752
iz	-12.7524
▁phosphor	-12.7525
▁gangan	-12.7526
▁worse	-12.7532
▁quake	-12.7533
▁reconstruct	-12.7537
▁alcohol	-12.7538
▁clement	-12.7538
▁chemotherap	-12.7539
▁confederate	-12.7539
▁critique	-12.7539
▁ecosystem	-12.7539
▁ojibw	-12.7539
▁reproduction	-12.7539
▁resurrect	-12.7539
▁satisfie	-12.7539
▁unemploy	-12.7539
▁constituenc	-12.7539
▁prehistor	-12.7539
▁compact	-12.7539
▁jaganna	-12.7539
▁theologian	-12.7539
▁bluff	-12.7539
▁treason	-12.7539
▁junta	-12.7539
violet	-12.7539
▁acquisition	-12.7539
▁spoil	-12.7539
▁workshop	-12.7539
▁nashville	-12.7539
▁spider	-12.7539
▁facade	-12.7539
▁yeoman	-12.7539
▁sitcom	-12.7539
anagi	-12.7539
▁feast	-12.754
▁viewpoint	-12.754
▁mound	-12.754
▁prolong	-12.754
▁capabilit	-12.754
▁medley	-12.754
▁preservation	-12.754
▁disagreement	-12.754
▁outdoor	-12.754
▁endanger	-12.7541
▁renovation	-12.7541
▁separation	-12.7541
▁newark	-12.7541
▁fig	-12.7541
▁insult	-12.7542
▁operative	-12.7543
uarte	-12.7543
▁susquehann	-12.7543
▁teenager	-12.7543
▁nea	-12.7544
▁beaver	-12.7545
monica	-12.7547
▁prefecture	-12.755
▁yoko	-12.755
▁organism	-12.755
▁brass	-12.7553
▁somebody	-12.7554
▁hydn	-12.7555
jiang	-12.7555
release	-12.7558
ased	-12.7561
▁homar	-12.7564
▁prevalen	-12.7564
inning	-12.7567
▁antagonist	-12.7568
▁olivi	-12.7572
▁nude	-12.7573
▁grape	-12.7573
wc	-12.7574
▁supervis	-12.7574
▁hanging	-12.7576
▁elliot	-12.7576
rah	-12.7596
scar	-12.76
▁gang	-12.7605
▁bro	-12.7607
▁constitute	-12.7607
▁jer	-12.761
anyan	-12.7614
lik	-12.7619
lé	-12.7622
▁captive	-12.7628
▁characteris	-12.7629
▁forgot	-12.763
▁smok	-12.7631
key	-12.7632
ports	-12.7637
▁sick	-12.764
teen	-12.7642
▁remarkabl	-12.7644
▁duck	-12.7645
▁flora	-12.7646
▁pore	-12.765
▁alpha	-12.7656
show	-12.7656
▁seller	-12.7657
▁beard	-12.7658
rise	-12.7658
▁remixe	-12.766
▁glan	-12.7662
allah	-12.767
ahl	-12.7675
▁ken	-12.7677
▁villager	-12.768
11	-12.7683
alone	-12.7689
nce	-12.7689
yo	-12.7691
▁helm	-12.7692
▁stall	-12.7692
shaw	-12.7701
▁hears	-12.7701
▁folklor	-12.7702
19	-12.7703
kick	-12.7706
▁cooke	-12.7709
▁archive	-12.7716
▁shang	-12.7721
ological	-12.7722
▁bleed	-12.7723
▁pest	-12.7728
▁fred	-12.773
poli	-12.7733
▁digg	-12.7733
felt	-12.7734
▁expose	-12.7737
duction	-12.7737
▁coache	-12.7738
wang	-12.7743
▁advocat	-12.7744
cellula	-12.775
▁pig	-12.7757
phore	-12.7759
rail	-12.776
▁torch	-12.7763
▁grec	-12.7767
nette	-12.7767
fix	-12.7769
▁cuts	-12.7772
vo	-12.7774
▁widen	-12.778
ule	-12.7781
eaten	-12.7781
▁echo	-12.7796
▁ecu	-12.7796
▁beta	-12.78
▁cg	-12.7802
them	-12.7804
aten	-12.7807
▁plague	-12.7808
▁cod	-12.7818
inner	-12.7834
bu	-12.7839
hampton	-12.7841
▁resist	-12.7843
kok	-12.7848
▁raja	-12.7851
▁please	-12.7867
▁timb	-12.787
▁mock	-12.787
▁relevan	-12.7871
bach	-12.7882
last	-12.7884
▁gunner	-12.7884
▁cur	-12.7889
▁zealander	-12.7894
▁rounded	-12.7898
▁rivalr	-12.7899
▁sac	-12.79
▁sortie	-12.79
▁abd	-12.7901
knowing	-12.7904
▁spear	-12.7905
▁privilege	-12.7908
owe	-12.7909
▁compartment	-12.7915
pus	-12.792
▁lar	-12.7922
▁laugh	-12.7923
imol	-12.7924
▁23	-12.7924
▁colonna	-12.7927
division	-12.7932
far	-12.7936
▁hung	-12.7937
▁sema	-12.7939
▁marvel	-12.7939
ello	-12.794
▁amaz	-12.7943
▁orib	-12.7948
▁ambitio	-12.795
▁hamar	-12.7951
▁swimm	-12.7953
▁detach	-12.7955
clamation	-12.7955
▁doofenshmirt	-12.7956
▁embryo	-12.7956
▁hoysala	-12.7956
▁insurgent	-12.7956
▁prolific	-12.7956
▁surprising	-12.7956
▁testament	-12.7956
▁viscount	-12.7956
nfl	-12.7956
▁odysse	-12.7956
▁medicine	-12.7956
▁pharaoh	-12.7956
▁supernova	-12.7956
▁referee	-12.7956
▁profound	-12.7956
▁rumour	-12.7956
▁warrant	-12.7956
▁gauge	-12.7956
▁excessive	-12.7956
▁flashback	-12.7956
▁vassal	-12.7956
▁felicia	-12.7957
vann	-12.7957
▁annex	-12.7958
▁accomplishment	-12.7958
▁nash	-12.7959
▁nomura	-12.796
▁thickness	-12.796
stroke	-12.7962
▁investor	-12.7962
▁farmland	-12.7963
austin	-12.7963
▁statute	-12.7963
▁assignment	-12.7964
urban	-12.7964
▁fantastic	-12.7966
▁depot	-12.7966
eliot	-12.7967
▁torn	-12.7969
▁islami	-12.7973
▁fant	-12.7975
▁clinical	-12.7977
▁crane	-12.7979
▁accelerat	-12.7982
▁muhammad	-12.7985
▁cure	-12.7988
▁stan	-12.7993
▁glamor	-12.8
▁philosopher	-12.8004
nmark	-12.8004
lam	-12.8005
▁kras	-12.8007
▁poisoning	-12.8007
ano	-12.8009
▁electro	-12.8009
▁jerr	-12.801
▁jami	-12.8011
▁negotiat	-12.8012
carmel	-12.8016
▁modification	-12.8022
▁relegati	-12.8026
▁infant	-12.8032
fth	-12.8033
vira	-12.8036
iuc	-12.8038
▁chile	-12.804
▁ye	-12.8041
▁dresse	-12.8043
pover	-12.8048
▁afford	-12.8048
▁explode	-12.8049
nme	-12.805
ennial	-12.8052
▁crack	-12.8054
▁lone	-12.8057
▁treasur	-12.8068
▁franz	-12.8074
▁ylide	-12.8074
▁oppose	-12.8075
▁dictionar	-12.808
▁sanction	-12.808
▁assessment	-12.8083
awa	-12.8089
▁faithful	-12.8089
storm	-12.8091
▁automatic	-12.8095
rad	-12.8097
sf	-12.8101
▁rider	-12.8103
availab	-12.8114
▁bottle	-12.8114
▁sulfide	-12.8117
▁integrat	-12.8122
mā	-12.8123
yat	-12.8125
thi	-12.8134
times	-12.8141
gett	-12.8147
▁disguise	-12.8149
ord	-12.8154
▁modes	-12.8171
▁anticipat	-12.8189
▁axi	-12.8192
▁hur	-12.8196
▁domn	-12.8196
▁gig	-12.8207
▁breach	-12.8212
wi	-12.8216
▁browns	-12.8221
broke	-12.8222
erman	-12.8222
see	-12.8225
bonell	-12.8235
▁curv	-12.8236
▁barre	-12.8241
hiro	-12.8244
mere	-12.8245
▁jumps	-12.8254
▁manning	-12.8256
corporation	-12.8263
▁nada	-12.8276
▁masse	-12.8278
▁bil	-12.8282
rian	-12.8287
▁frustrat	-12.8292
▁pressing	-12.8294
▁loch	-12.8295
▁circulat	-12.8298
▁prosecuti	-12.8299
ec	-12.8306
▁freed	-12.8306
▁accord	-12.8308
▁disabl	-12.8309
▁fertil	-12.8319
ped	-12.832
match	-12.8324
lacks	-12.8325
▁shin	-12.8325
▁claire	-12.8325
▁printing	-12.8336
▁vh	-12.8337
ibilit	-12.8338
ag	-12.834
▁breast	-12.8341
▁horns	-12.8342
▁diocese	-12.8345
▁gris	-12.8348
ore	-12.8362
▁lens	-12.8363
▁yugoslav	-12.8365
ud	-12.8368
esque	-12.837
frey	-12.8372
▁hyper	-12.8372
▁songwrit	-12.8373
plasm	-12.8376
▁boost	-12.8376
protect	-12.8378
▁cedar	-12.8382
human	-12.8382
▁algorithm	-12.839
▁atmospheric	-12.839
▁calendar	-12.839
▁demolition	-12.839
▁epithet	-12.839
▁eucalypt	-12.839
▁javelin	-12.839
▁melanchol	-12.839
▁substrate	-12.839
▁eighteen	-12.839
▁mycologist	-12.839
▁ambulance	-12.839
▁climax	-12.839
▁obsole	-12.839
▁choral	-12.839
▁palmyra	-12.839
▁parodie	-12.839
▁fusil	-12.839
▁accommodation	-12.839
▁psychological	-12.839
▁tamil	-12.839
▁unveil	-12.8391
▁undergraduate	-12.8391
▁fletcher	-12.8391
▁nomad	-12.8391
▁invisibl	-12.8391
▁sparse	-12.8391
▁taunt	-12.8392
▁philosophical	-12.8392
▁honest	-12.8392
▁chef	-12.8392
▁remaster	-12.8393
▁moons	-12.8393
▁enact	-12.8393
▁naturalist	-12.8393
▁dominion	-12.8394
▁falcon	-12.8394
▁thriller	-12.8394
▁novelist	-12.8395
▁calculator	-12.8395
▁luke	-12.8395
ensus	-12.8395
▁propell	-12.8396
▁haunt	-12.8397
▁ladies	-12.8398
▁funnel	-12.8398
▁alteration	-12.8398
▁viking	-12.8399
▁deadline	-12.8401
▁lament	-12.8403
▁hypha	-12.8404
hari	-12.8406
▁efficient	-12.8406
▁protector	-12.8409
tis	-12.8413
wire	-12.8413
▁shipyard	-12.8413
▁provok	-12.8414
▁negotiate	-12.8415
▁kubic	-12.8416
▁forgive	-12.842
rake	-12.8422
hapur	-12.8424
tour	-12.8424
▁merit	-12.8425
azor	-12.8427
▁decree	-12.8429
▁hypothesis	-12.8429
▁placement	-12.8431
▁cre	-12.8434
▁bobb	-12.8435
range	-12.8436
bois	-12.8436
▁aoc	-12.8437
▁frames	-12.8442
steven	-12.8443
▁valentin	-12.8451
▁faint	-12.8451
▁abram	-12.8451
sent	-12.846
median	-12.8465
▁fed	-12.8469
rc	-12.847
asteroid	-12.8473
▁gaga	-12.8474
▁traverse	-12.8475
▁invade	-12.848
erz	-12.8488
haven	-12.8489
iego	-12.8495
levant	-12.8495
identification	-12.8496
ois	-12.8503
▁rout	-12.8509
loan	-12.8509
anche	-12.8513
▁parliamentar	-12.8515
kar	-12.8516
▁fails	-12.8517
▁busy	-12.8523
▁merced	-12.8524
ross	-12.8524
▁braves	-12.8531
▁flags	-12.8541
▁barge	-12.8542
▁gaz	-12.8544
▁realistic	-12.8554
▁plat	-12.8555
government	-12.8559
brug	-12.8559
ved	-12.8563
tum	-12.8564
▁huai	-12.8565
▁orient	-12.857
leigh	-12.8572
development	-12.8579
▁patter	-12.858
oceratops	-12.8584
▁chan	-12.8584
▁bend	-12.8589
▁clash	-12.8591
▁harve	-12.8597
sund	-12.8597
▁bombard	-12.8599
▁migrate	-12.86
▁erik	-12.8601
infall	-12.8606
▁influenc	-12.8612
▁screening	-12.8613
ghan	-12.8619
law	-12.8628
▁softw	-12.8637
iscus	-12.8639
birth	-12.8641
▁shall	-12.8644
commission	-12.8645
adequate	-12.8646
rising	-12.8648
▁che	-12.8659
▁eno	-12.8659
▁michaels	-12.8665
▁dj	-12.8681
spoke	-12.8685
▁berk	-12.8692
▁licens	-12.8693
▁prosper	-12.8694
▁nir	-12.8696
warm	-12.8701
▁bride	-12.8703
▁commentar	-12.8711
▁devon	-12.8712
▁massa	-12.8717
▁kre	-12.872
▁champ	-12.8728
▁levin	-12.8731
race	-12.8735
▁launche	-12.8735
ames	-12.874
▁disciples	-12.8742
league	-12.8745
▁amun	-12.8747
▁hardy	-12.8759
▁stretche	-12.876
erby	-12.8761
▁scar	-12.8762
▁perceiv	-12.8764
battle	-12.8764
ple	-12.8766
▁fried	-12.8766
summer	-12.8774
▁aval	-12.8774
harp	-12.8778
▁verdict	-12.8788
▁reag	-12.8789
▁reside	-12.8791
watch	-12.8792
▁slaver	-12.8792
luis	-12.8793
gau	-12.8797
▁teache	-12.8802
location	-12.8803
▁barr	-12.8806
▁discharge	-12.8806
▁proof	-12.8807
mita	-12.8807
▁correspond	-12.8812
logical	-12.8815
magnetic	-12.8817
cach	-12.8818
▁munic	-12.8823
▁kus	-12.8833
▁afr	-12.8835
▁prominen	-12.884
lf	-12.884
▁bulgaria	-12.8841
▁teenage	-12.8841
▁expir	-12.8845
▁superficial	-12.8845
▁unofficial	-12.8845
▁ironclad	-12.8845
▁jurisdiction	-12.8845
▁krypton	-12.8845
▁mcluhan	-12.8845
▁satisfy	-12.8845
▁submerge	-12.8845
▁tobacco	-12.8845
▁cytoplasm	-12.8845
▁lobster	-12.8845
▁thunderstorm	-12.8845
▁wizard	-12.8845
▁fission	-12.8845
▁distress	-12.8845
▁rearguard	-12.8845
▁absent	-12.8845
▁jacque	-12.8845
▁incumbent	-12.8845
▁barbour	-12.8845
▁clerk	-12.8845
▁glitter	-12.8845
▁persistent	-12.8845
▁embass	-12.8845
▁postpone	-12.8845
▁physicist	-12.8845
▁admission	-12.8845
▁revelation	-12.8845
▁humorous	-12.8846
▁displacement	-12.8846
▁topological	-12.8846
▁patent	-12.8846
connor	-12.8846
▁fascist	-12.8846
hangz	-12.8847
▁sponsorship	-12.8847
▁xef	-12.8847
▁susan	-12.8847
▁pretend	-12.8848
▁lemon	-12.8848
▁tribun	-12.8849
▁calculation	-12.885
▁reef	-12.885
▁communal	-12.885
rope	-12.885
▁larva	-12.8852
▁reinforc	-12.8853
▁mcca	-12.8854
▁enroll	-12.8855
▁rework	-12.8857
▁assured	-12.8857
▁unlock	-12.8858
terti	-12.8859
▁mercur	-12.8859
▁194	-12.886
▁traf	-12.886
▁retro	-12.8861
▁procedure	-12.8861
▁loot	-12.8864
▁escap	-12.8864
▁dunn	-12.8868
unes	-12.8868
▁niche	-12.8869
liang	-12.887
▁donor	-12.8872
▁branche	-12.8872
wwe	-12.8874
▁baja	-12.8878
▁phillips	-12.888
▁pap	-12.8882
▁siberia	-12.8882
▁diane	-12.8882
▁canop	-12.8883
▁desir	-12.8883
gel	-12.8885
raton	-12.8885
▁crescen	-12.8887
▁exceeding	-12.8887
▁highlander	-12.8888
chmar	-12.8894
▁persona	-12.8894
▁fore	-12.8896
▁fortifi	-12.8904
▁lev	-12.8905
▁weird	-12.8905
ison	-12.8906
▁gambl	-12.8915
rovers	-12.8917
▁platte	-12.8919
sburg	-12.892
▁malaya	-12.8931
saur	-12.8934
▁morale	-12.8936
father	-12.8936
▁hostilit	-12.894
▁forag	-12.8944
▁jt	-12.8946
▁ragh	-12.8955
▁width	-12.8959
▁chauv	-12.8963
▁identi	-12.8963
▁delicate	-12.8964
▁grid	-12.8964
bei	-12.8967
▁patroll	-12.8968
▁kho	-12.8969
▁consume	-12.8972
ople	-12.8974
▁aden	-12.8975
inus	-12.8976
▁wool	-12.8977
▁extract	-12.8979
▁overse	-12.8984
▁fairy	-12.8988
▁initiate	-12.8994
realistic	-12.8996
▁attractive	-12.9006
perth	-12.9009
▁composite	-12.9011
como	-12.9017
▁diminish	-12.9025
▁indiana	-12.9027
▁fitz	-12.9028
▁consort	-12.9028
▁bal	-12.903
▁juli	-12.9034
nnie	-12.9034
▁galile	-12.9036
got	-12.9038
▁eugen	-12.9039
▁lights	-12.9043
▁ceremoni	-12.9045
gio	-12.905
▁gloss	-12.9051
print	-12.9054
▁fernand	-12.9058
hiv	-12.9059
▁johann	-12.9063
▁cather	-12.9066
gains	-12.9072
▁synthesis	-12.9074
elhi	-12.9077
▁finishe	-12.9083
▁trick	-12.9088
▁cam	-12.9088
trix	-12.9092
▁foca	-12.9094
▁heal	-12.9094
mate	-12.9094
pinning	-12.9095
▁schu	-12.9095
▁oath	-12.9097
▁terror	-12.9098
▁kil	-12.9105
rmal	-12.9105
▁humanit	-12.9116
dec	-12.9116
gy	-12.9118
▁luc	-12.9118
▁proven	-12.9121
lia	-12.9129
▁rubb	-12.9129
▁palen	-12.9137
▁wey	-12.9142
cell	-12.9143
▁haul	-12.9148
▁appreciate	-12.9149
zan	-12.9151
▁kerr	-12.9153
purpose	-12.9156
rats	-12.9157
▁summ	-12.9157
kpa	-12.9161
▁discontinu	-12.9163
iest	-12.9168
prepared	-12.9176
▁28	-12.9179
▁etc	-12.9185
wald	-12.9186
same	-12.9188
▁lauren	-12.9193
cation	-12.9196
mediate	-12.9198
▁mau	-12.9203
hagen	-12.9208
▁nonsens	-12.9213
lund	-12.9217
ef	-12.9217
del	-12.9221
▁gal	-12.9224
▁sic	-12.9229
▁punish	-12.923
▁royst	-12.9236
▁constitutional	-12.9237
stern	-12.924
▁sympathetic	-12.9246
▁ja	-12.9251
▁tent	-12.9254
▁blo	-12.9254
▁motivat	-12.9262
termed	-12.9266
▁cove	-12.9268
nish	-12.9272
ott	-12.9273
▁dissent	-12.9277
▁tur	-12.9291
lyn	-12.9292
▁stern	-12.9296
apple	-12.9298
▁worshipp	-12.93
odon	-12.9301
▁mud	-12.9301
▁kahn	-12.9303
uve	-12.9305
ven	-12.9305
clean	-12.9306
wyn	-12.9307
▁emi	-12.9313
bc	-12.9316
▁rhodesia	-12.9317
▁unanimous	-12.9321
▁confederation	-12.9321
▁klingon	-12.9321
▁prairie	-12.9321
▁vigorous	-12.9321
▁custod	-12.9321
▁gravitational	-12.9321
▁posthumous	-12.9321
▁reincarnation	-12.9321
▁huguenot	-12.9321
▁jaguar	-12.9321
▁scandal	-12.9321
▁nottingham	-12.9321
▁twenty	-12.9321
▁augment	-12.9321
▁proctor	-12.9321
▁kaiser	-12.9321
sław	-12.9321
ig	-12.9321
▁legitimate	-12.9321
▁revolt	-12.9321
▁plaque	-12.9321
▁freestyle	-12.9322
▁griffin	-12.9322
▁pearl	-12.9322
▁physician	-12.9322
▁flatten	-12.9322
▁tongue	-12.9322
▁choreograph	-12.9322
▁shipbuild	-12.9322
▁mosaic	-12.9322
▁abraham	-12.9322
▁puritan	-12.9323
▁dockyard	-12.9323
▁grasp	-12.9323
▁doroth	-12.9323
▁occurrence	-12.9323
▁offs	-12.9323
occer	-12.9323
▁pianist	-12.9323
stance	-12.9323
▁hyder	-12.9324
▁roundabout	-12.9324
▁blake	-12.9325
▁determination	-12.9325
▁rebound	-12.9325
▁relic	-12.9326
▁daylight	-12.9327
▁dictator	-12.9328
▁figg	-12.9328
▁voyager	-12.9328
▁karamok	-12.9329
skirt	-12.933
▁incorrect	-12.933
narayan	-12.933
▁index	-12.9332
▁stockhol	-12.9332
▁revisit	-12.9332
▁pulse	-12.9332
▁flightless	-12.9334
▁antille	-12.9335
▁prostitute	-12.9335
▁beast	-12.9337
▁compell	-12.9337
▁uni	-12.9339
kai	-12.9339
▁domo	-12.9339
bottom	-12.9339
▁dinner	-12.9342
▁progresses	-12.9343
▁fitting	-12.9343
▁fond	-12.9344
▁sebasti	-12.9345
▁pict	-12.9345
cu	-12.9346
▁penis	-12.9346
▁martyr	-12.9348
▁morel	-12.9348
▁juda	-12.9348
▁astrae	-12.9348
▁modell	-12.935
▁provisional	-12.9357
surance	-12.9359
ked	-12.9359
▁si	-12.9362
▁nights	-12.9364
▁fret	-12.9365
▁bryan	-12.9365
▁cement	-12.9366
sley	-12.9374
▁input	-12.9376
amanda	-12.938
▁hinde	-12.9381
▁summi	-12.9385
ryce	-12.9386
▁coba	-12.939
▁aero	-12.9393
verse	-12.9395
▁subsidiar	-12.9395
breaker	-12.9396
rane	-12.94
▁midland	-12.94
▁tang	-12.9402
▁chant	-12.9402
▁opens	-12.9403
▁polytr	-12.9404
ee	-12.9404
▁arama	-12.9404
▁irrigat	-12.9409
▁verme	-12.941
▁rama	-12.9412
onta	-12.9414
▁niece	-12.9425
▁manuel	-12.944
▁revive	-12.944
▁excited	-12.9447
onso	-12.9448
▁temper	-12.945
ellen	-12.9451
inari	-12.9452
▁fau	-12.9454
▁deteriorat	-12.9454
▁geast	-12.9455
robe	-12.9457
dolph	-12.9461
val	-12.9468
▁mongolia	-12.9476
motive	-12.9478
▁neo	-12.9483
▁iran	-12.9484
told	-12.9489
▁organizer	-12.949
guan	-12.9492
▁applie	-12.9494
je	-12.9497
gge	-12.9501
▁coronati	-12.9504
mates	-12.9507
▁circu	-12.9507
fisch	-12.9514
▁sat	-12.9516
▁enduring	-12.952
till	-12.9522
oc	-12.9527
thorn	-12.9527
enic	-12.953
suit	-12.953
▁hardco	-12.9543
tz	-12.9546
▁unus	-12.9547
elta	-12.9549
▁classifie	-12.955
▁eligib	-12.9553
bred	-12.9555
▁missionar	-12.9556
▁harm	-12.9563
bald	-12.9563
nest	-12.9567
▁trench	-12.9573
▁myelo	-12.9574
bias	-12.9581
▁shade	-12.9581
▁modest	-12.9583
▁temperat	-12.9585
hinge	-12.9587
aur	-12.9587
▁regulate	-12.9588
▁peck	-12.9588
▁pan	-12.9589
timer	-12.9594
▁fog	-12.9595
bout	-12.96
different	-12.9606
pau	-12.9608
▁gandh	-12.9614
yl	-12.9621
▁interactiv	-12.9623
sense	-12.9626
▁shaw	-12.9629
llo	-12.9633
tell	-12.9634
kong	-12.9638
▁wein	-12.9642
neck	-12.9647
road	-12.9647
▁pompe	-12.9649
▁exe	-12.9651
spin	-12.9652
▁solutions	-12.9654
hattan	-12.9666
▁smash	-12.9672
veer	-12.9673
ubble	-12.9675
▁ln	-12.9678
arch	-12.9682
▁synth	-12.9683
lotype	-12.9691
▁citizen	-12.9692
▁johnn	-12.9694
▁sight	-12.9708
▁jan	-12.9708
▁emphasiz	-12.9714
▁gro	-12.9715
bis	-12.9715
▁bu	-12.9715
▁surgeon	-12.9717
herds	-12.9722
ont	-12.9723
citation	-12.9726
▁sb	-12.9728
ella	-12.9738
famil	-12.9738
uku	-12.974
▁bead	-12.974
fly	-12.9743
▁denis	-12.9747
fork	-12.9755
▁torture	-12.9756
eum	-12.9759
ele	-12.9764
▁aot	-12.9768
load	-12.9769
church	-12.9769
▁petrol	-12.9769
ouche	-12.9777
sk	-12.9783
tical	-12.9783
▁assassin	-12.9788
▁saga	-12.979
▁ab	-12.9796
hale	-12.9803
ogna	-12.9807
▁pic	-12.9807
ala	-12.9815
nels	-12.9817
▁theft	-12.9817
▁advent	-12.9817
▁puck	-12.9818
▁pronounce	-12.982
▁metaphor	-12.9821
▁abstract	-12.9821
▁allegiance	-12.9821
▁artefact	-12.9821
▁democrac	-12.9821
▁inferior	-12.9821
▁knuckleball	-12.9821
▁nervous	-12.9821
▁etymolog	-12.9821
▁salvador	-12.9821
▁wednes	-12.9821
▁buckingham	-12.9821
▁administrator	-12.9821
▁emplacement	-12.9821
▁imprint	-12.9821
▁thirteen	-12.9821
extraterrestrial	-12.9821
▁picard	-12.9821
▁database	-12.9822
▁wonderful	-12.9822
▁prussia	-12.9822
▁prosecutor	-12.9822
▁migrant	-12.9822
▁textile	-12.9822
▁proud	-12.9822
▁creep	-12.9822
▁psp	-12.9822
▁reclaim	-12.9822
▁detachment	-12.9822
▁peronist	-12.9822
▁pride	-12.9822
▁frost	-12.9823
▁unpopular	-12.9823
▁frustration	-12.9823
▁distortion	-12.9823
▁paperback	-12.9823
▁lung	-12.9823
▁warwick	-12.9823
▁awaken	-12.9823
▁drunk	-12.9823
▁midfielder	-12.9824
▁eager	-12.9824
▁autonom	-12.9824
jill	-12.9825
▁transformation	-12.9825
▁bulgarian	-12.9826
▁microscopic	-12.9827
▁bosnian	-12.9827
▁sewer	-12.9827
▁outnumber	-12.9827
▁kashi	-12.9829
▁wetland	-12.9829
▁testifie	-12.983
▁testimon	-12.9831
▁criteri	-12.9831
▁prediction	-12.9832
▁sensitive	-12.9832
▁indo	-12.9832
▁filmmaker	-12.9833
▁sher	-12.9834
▁necessit	-12.9834
▁levee	-12.9835
▁cabo	-12.9836
▁elector	-12.9838
▁ecclesiastic	-12.9838
▁ltd	-12.9839
▁mess	-12.9839
stars	-12.9842
▁ancestr	-12.9843
▁attest	-12.9844
▁doug	-12.9844
▁induc	-12.9848
▁hitter	-12.9851
mountain	-12.9851
▁montagu	-12.9851
ague	-12.9852
fia	-12.9852
▁smell	-12.9852
▁punch	-12.9853
▁forget	-12.9854
entine	-12.9855
▁hib	-12.9855
▁specification	-12.9855
▁assumption	-12.9856
▁integr	-12.9857
ona	-12.9859
diana	-12.986
▁bran	-12.9861
▁conform	-12.9863
▁clade	-12.9864
▁eddie	-12.9864
▁laser	-12.9865
▁maxim	-12.9868
▁geograph	-12.9868
▁moravia	-12.9868
▁feat	-12.9871
pencer	-12.9872
▁utilit	-12.9874
sleep	-12.9875
uras	-12.9876
tane	-12.988
▁hi	-12.9881
▁otter	-12.9891
▁hungar	-12.9891
▁mouse	-12.9898
mycena	-12.9898
▁banner	-12.9899
lese	-12.99
loses	-12.9901
▁trauma	-12.9901
litz	-12.9902
easter	-12.9911
▁pledge	-12.9911
▁outrage	-12.9913
▁ratio	-12.9914
vana	-12.9916
urg	-12.9918
stat	-12.992
▁catalogue	-12.9923
ngular	-12.9924
▁designate	-12.9932
▁violat	-12.9933
▁dorsal	-12.9937
▁knife	-12.9943
▁cassin	-12.9944
▁omitt	-12.9945
▁hazard	-12.9945
▁vaishnav	-12.9946
▁affiliate	-12.9946
▁burie	-12.9951
▁cha	-12.9957
▁rico	-12.9958
▁lao	-12.996
▁gambia	-12.9964
akur	-12.9964
adel	-12.9968
offman	-12.9969
▁dare	-12.9972
▁outline	-12.9972
▁jak	-12.9976
sw	-12.998
po	-12.9982
▁accumulat	-12.9986
▁watche	-12.9987
cott	-12.9987
dana	-12.9989
bands	-12.999
cfarlan	-12.9991
▁advise	-12.9991
▁entit	-12.9991
allow	-12.9996
▁xii	-12.9998
mauli	-13.0004
anus	-13.0008
void	-13.0012
ogue	-13.0015
▁luna	-13.0016
bsa	-13.0021
▁popula	-13.0021
▁bern	-13.0021
▁viewer	-13.0025
▁intra	-13.0026
▁madre	-13.0031
mus	-13.0033
▁ideolog	-13.0034
▁rap	-13.0037
▁adequate	-13.0048
glan	-13.0049
▁shi	-13.0051
▁asset	-13.0052
borg	-13.0056
▁grande	-13.0058
asco	-13.0059
hills	-13.0062
▁cad	-13.0064
twick	-13.007
chary	-13.007
▁minsk	-13.0077
▁terminat	-13.0078
▁doubled	-13.0079
month	-13.0079
nice	-13.0082
▁demons	-13.0087
unti	-13.0091
lp	-13.0097
▁brom	-13.0097
▁gi	-13.01
▁baye	-13.0101
▁fascinat	-13.0104
▁exo	-13.0105
rings	-13.0107
familiar	-13.0107
si	-13.011
week	-13.0114
▁odor	-13.0117
▁forecast	-13.0125
lease	-13.0129
▁addresse	-13.0135
▁ag	-13.0136
▁fake	-13.0137
▁tele	-13.0145
elano	-13.0145
ates	-13.0156
▁borea	-13.0159
tech	-13.0162
zone	-13.017
▁cite	-13.0171
▁accumulate	-13.0173
cd	-13.0181
roe	-13.0182
▁attacker	-13.0191
nunciation	-13.0199
endra	-13.0199
▁trustees	-13.0201
▁shel	-13.0207
▁mobil	-13.0214
▁acc	-13.0215
sha	-13.0216
▁analyz	-13.0216
zo	-13.0222
▁originate	-13.0223
▁kar	-13.0224
▁poe	-13.0228
▁seam	-13.0238
od	-13.0239
ons	-13.0242
▁napa	-13.0251
▁abnormal	-13.0255
▁resolv	-13.0258
▁ruf	-13.0262
▁governors	-13.0262
▁cherr	-13.0265
▁provoke	-13.0266
▁mumb	-13.0272
▁albe	-13.0273
▁happi	-13.0274
▁tonne	-13.0279
▁bias	-13.028
ennis	-13.0281
▁lit	-13.0282
▁worri	-13.0285
hua	-13.0292
gold	-13.0293
sins	-13.0295
▁dissolve	-13.03
▁rpg	-13.0303
herzo	-13.0304
▁veer	-13.0304
▁sensation	-13.0305
along	-13.0313
▁submit	-13.0314
ging	-13.0321
connector	-13.0326
repair	-13.0332
▁reunite	-13.0332
ying	-13.0335
runner	-13.0335
brit	-13.0336
▁gall	-13.0339
nar	-13.0339
▁bet	-13.0341
▁civi	-13.0342
▁distract	-13.0343
▁inspect	-13.0344
▁advert	-13.0345
▁blank	-13.0347
promising	-13.0347
absorpti	-13.0347
▁artifact	-13.0347
▁benedict	-13.0347
▁beneficia	-13.0347
▁disadvantage	-13.0347
▁dreadnought	-13.0347
▁immature	-13.0347
▁unnecessar	-13.0347
▁hubbard	-13.0347
▁bachelor	-13.0347
ów	-13.0347
▁templar	-13.0347
▁mcdougal	-13.0347
▁vegetable	-13.0347
▁client	-13.0348
▁chestnut	-13.0348
▁entrench	-13.0348
▁plaster	-13.0348
▁preference	-13.0348
▁unwilling	-13.0348
▁robust	-13.0348
▁deception	-13.0348
▁clutch	-13.0348
▁furious	-13.0348
▁receptor	-13.0348
▁endorsement	-13.0348
▁councillor	-13.0348
▁espn	-13.0348
▁obligation	-13.0348
▁portico	-13.0349
▁nestling	-13.0349
▁calder	-13.0349
▁timeslot	-13.0349
▁sandstone	-13.0349
▁punk	-13.0349
▁allāh	-13.0349
▁pew	-13.035
▁nostr	-13.0351
mac	-13.0351
▁gentleman	-13.0351
▁mé	-13.0351
▁blond	-13.0351
▁reptile	-13.0351
▁vibe	-13.0351
▁otto	-13.0351
▁extinction	-13.0352
▁befriend	-13.0352
▁oxidati	-13.0353
sung	-13.0353
▁analog	-13.0353
▁clearance	-13.0354
▁await	-13.0354
▁danish	-13.0355
▁disruption	-13.0355
▁earthstar	-13.0355
▁rotat	-13.0356
▁galley	-13.0357
▁manoeuvre	-13.0357
▁rowland	-13.0357
▁courtyard	-13.0357
▁envision	-13.0358
bro	-13.0358
▁tendenc	-13.0358
▁stranger	-13.0359
▁logistical	-13.0359
fume	-13.036
▁theodore	-13.0361
▁oswald	-13.0362
▁mort	-13.0362
▁virtuos	-13.0362
▁propeller	-13.0363
▁overnight	-13.0363
▁gerry	-13.0363
▁adoption	-13.0366
mega	-13.0366
lone	-13.0368
▁dismissal	-13.0369
▁satiric	-13.037
▁insight	-13.0371
▁mystic	-13.0372
▁petit	-13.0374
10	-13.0375
▁belle	-13.0376
▁certificat	-13.0376
iya	-13.0379
▁zapat	-13.0381
▁guess	-13.0383
tt	-13.0383
▁liken	-13.0385
▁manipulat	-13.039
▁laura	-13.0391
▁legislat	-13.0391
nson	-13.0394
rak	-13.0396
▁googl	-13.0397
eć	-13.04
▁alder	-13.0402
▁duncan	-13.0404
▁ivan	-13.0406
ris	-13.0407
▁residue	-13.0409
▁sprint	-13.0411
▁gof	-13.0413
▁conspirac	-13.0414
brough	-13.0414
▁classroom	-13.0414
itis	-13.0414
▁chromosome	-13.0414
▁vein	-13.0422
uous	-13.0422
▁slash	-13.0424
mb	-13.0427
▁lobb	-13.0427
▁bicycle	-13.0428
▁fragil	-13.043
▁dole	-13.0438
▁affirm	-13.0441
▁fab	-13.0443
▁gag	-13.0445
add	-13.0445
▁marcell	-13.0446
▁kristians	-13.0454
szt	-13.0457
phone	-13.0459
▁align	-13.0463
nese	-13.0465
▁whistle	-13.0466
▁neon	-13.0468
station	-13.0473
ci	-13.0474
▁shorten	-13.0477
▁granit	-13.0479
▁authentic	-13.048
▁enthusiastic	-13.0482
▁soir	-13.0484
num	-13.0485
▁invertebrate	-13.0486
▁stripp	-13.0487
tal	-13.0488
itu	-13.0494
▁rar	-13.0499
▁nova	-13.0502
▁dodge	-13.0504
▁portal	-13.0506
cus	-13.0506
▁adde	-13.0509
tawa	-13.0509
spur	-13.052
▁indication	-13.0521
▁medd	-13.0522
hole	-13.0527
▁orton	-13.0529
▁replie	-13.0533
diaman	-13.0534
▁generator	-13.0535
bur	-13.0536
▁smack	-13.0536
▁sag	-13.0539
aga	-13.0547
style	-13.0551
ears	-13.0553
▁symmetrical	-13.0557
▁cabr	-13.056
▁stamp	-13.056
werf	-13.0565
▁sopho	-13.0566
▁mcg	-13.0567
beck	-13.0571
tters	-13.0573
▁photos	-13.0573
▁tel	-13.0598
▁objection	-13.0599
hoo	-13.0603
▁labell	-13.0606
hold	-13.0606
ault	-13.061
ahi	-13.061
kh	-13.0611
▁nat	-13.0611
lion	-13.0618
▁ukrain	-13.0624
▁hinder	-13.0626
▁corners	-13.0626
▁accuse	-13.0631
semen	-13.0644
▁bubble	-13.0645
▁motto	-13.0655
▁satak	-13.0656
▁barbi	-13.0658
▁dragon	-13.0661
ambu	-13.0663
ual	-13.0665
av	-13.067
▁denie	-13.0672
▁scen	-13.0674
▁logo	-13.0678
wines	-13.0678
▁tow	-13.0689
▁pierre	-13.0694
vel	-13.0696
balla	-13.0703
▁cor	-13.0706
cliff	-13.0707
quet	-13.0712
▁evacuat	-13.0715
▁clip	-13.0717
ief	-13.0718
ibn	-13.072
antoni	-13.0726
gin	-13.0733
▁optimis	-13.0734
▁sperm	-13.0735
▁realise	-13.0737
▁linds	-13.0737
caster	-13.0741
best	-13.0742
litude	-13.0744
surface	-13.0744
▁periodic	-13.0754
nf	-13.0759
▁hawk	-13.0767
▁mar	-13.0771
▁evolve	-13.0782
▁hu	-13.0783
▁verbal	-13.0787
▁broom	-13.0788
rite	-13.0797
inje	-13.0806
▁moss	-13.0811
meal	-13.0822
▁ariz	-13.0824
▁dedicate	-13.0826
▁narrat	-13.083
▁harmoni	-13.0831
mill	-13.0834
still	-13.0836
▁glaci	-13.0837
▁illuminat	-13.084
enus	-13.084
▁princip	-13.084
hbo	-13.0843
▁patt	-13.0844
▁excavat	-13.0847
col	-13.0848
▁né	-13.0849
coat	-13.0851
gia	-13.0853
corporate	-13.0855
▁pseudo	-13.0856
nati	-13.0856
put	-13.0857
fair	-13.0862
▁embarrass	-13.0864
▁thrill	-13.0864
▁newer	-13.0873
ometric	-13.0883
rca	-13.0885
▁connecti	-13.0887
▁julia	-13.0889
ronym	-13.089
▁surve	-13.0892
▁characterize	-13.0893
▁julie	-13.0893
▁montenegr	-13.0896
▁commend	-13.0896
bourg	-13.0898
▁enlighten	-13.0903
▁abolition	-13.0903
▁cossack	-13.0903
▁insufficient	-13.0903
▁magistrate	-13.0903
▁recipient	-13.0903
▁seymour	-13.0903
▁sulfur	-13.0903
▁kilogram	-13.0903
conclusive	-13.0903
▁bankrupt	-13.0903
▁discern	-13.0903
▁duchess	-13.0903
▁vancouver	-13.0903
▁splash	-13.0903
▁spontaneous	-13.0903
▁truncat	-13.0903
▁antarctic	-13.0903
▁caravan	-13.0903
▁curious	-13.0903
▁peasant	-13.0903
shrink	-13.0903
▁precious	-13.0903
▁humid	-13.0903
▁adverse	-13.0903
▁feminin	-13.0903
▁genius	-13.0903
▁notorious	-13.0903
▁interval	-13.0903
▁cornwall	-13.0903
▁slab	-13.0903
▁macdonald	-13.0903
▁autonomous	-13.0904
▁friday	-13.0904
▁whig	-13.0904
▁jungle	-13.0904
▁phoenician	-13.0904
▁obsession	-13.0904
▁ruthless	-13.0904
▁syllable	-13.0904
▁lambton	-13.0904
zhu	-13.0904
▁pike	-13.0905
▁pageant	-13.0905
▁editorial	-13.0905
▁convenien	-13.0905
▁sawmill	-13.0905
▁probabili	-13.0905
▁technological	-13.0906
▁badge	-13.0906
▁cascade	-13.0906
ibot	-13.0906
▁hereford	-13.0906
bosi	-13.0907
▁intensive	-13.0907
elope	-13.0907
▁redevelop	-13.0907
▁auction	-13.0908
▁librett	-13.0909
▁bestow	-13.0909
▁iberia	-13.0909
▁desk	-13.0909
▁converse	-13.0911
▁reinstate	-13.0911
▁astonishing	-13.0912
▁selective	-13.0912
horus	-13.0912
▁prohibition	-13.0912
ridan	-13.0913
▁summarize	-13.0913
▁distributor	-13.0913
eft	-13.0914
▁whip	-13.0914
▁sprite	-13.0915
▁garage	-13.0915
axi	-13.0915
▁marina	-13.0915
▁thunder	-13.0916
▁praet	-13.0917
▁vow	-13.0917
▁emma	-13.0919
▁shy	-13.092
▁cottage	-13.0921
▁nominal	-13.0921
▁inherent	-13.0923
▁amend	-13.0924
▁legion	-13.0926
▁subtle	-13.0926
minh	-13.0927
kov	-13.0931
▁shooter	-13.0933
▁gros	-13.0935
illan	-13.0937
tigo	-13.0937
airing	-13.0938
▁prop	-13.0941
▁hun	-13.0941
hiban	-13.0944
▁faste	-13.0946
affect	-13.0948
▁infest	-13.095
assl	-13.095
▁virus	-13.0957
▁gerald	-13.0957
edith	-13.0958
▁surre	-13.0959
▁mold	-13.096
▁six	-13.0963
▁recapture	-13.0969
coal	-13.0971
▁reconcile	-13.0972
vier	-13.0974
▁metric	-13.0976
▁carbonari	-13.098
▁dubi	-13.0982
▁maat	-13.0989
scrib	-13.0992
▁blair	-13.0992
▁shelle	-13.0993
▁cass	-13.0996
▁judicia	-13.0996
▁attende	-13.0996
udor	-13.0997
▁sclerodermat	-13.1006
▁brent	-13.1006
▁heroin	-13.1015
22	-13.1018
dp	-13.1019
▁creed	-13.1022
▁tamp	-13.1026
▁pigment	-13.1028
til	-13.1031
bearing	-13.1031
▁orthodox	-13.1034
fortune	-13.1034
▁downgrad	-13.1038
▁hoove	-13.1038
even	-13.1038
▁bacteria	-13.104
ores	-13.1041
▁stimulat	-13.1042
fore	-13.1046
raine	-13.1048
▁travi	-13.1049
▁mounting	-13.1051
▁cory	-13.1055
▁phoe	-13.1057
▁package	-13.1058
mobile	-13.1068
static	-13.1071
shan	-13.1072
▁sounding	-13.1075
▁presenter	-13.1076
▁trailer	-13.108
current	-13.108
eller	-13.1082
▁beatle	-13.1083
▁downward	-13.1099
bay	-13.11
▁geo	-13.1106
frog	-13.1109
▁cos	-13.1111
tland	-13.1111
attack	-13.1112
neur	-13.1116
tom	-13.1122
▁bree	-13.1125
▁drops	-13.1126
▁plastic	-13.1126
▁sterl	-13.1133
eats	-13.1134
▁unhapp	-13.114
aland	-13.1143
incorporat	-13.1144
rez	-13.1148
▁excite	-13.1148
scene	-13.1154
▁isolate	-13.1156
cade	-13.1158
▁liv	-13.1158
anaka	-13.1167
▁silence	-13.1169
entire	-13.1172
▁polar	-13.1173
▁southward	-13.1173
▁dear	-13.1191
▁showcase	-13.1192
▁stabiliz	-13.1201
▁magnet	-13.1205
▁compensati	-13.1211
hook	-13.1217
▁communicate	-13.1217
▁scha	-13.1219
wind	-13.1219
▁iconograph	-13.122
delia	-13.1223
wen	-13.1225
bec	-13.1226
▁stud	-13.1228
▁uh	-13.1236
▁rev	-13.124
ann	-13.1241
saka	-13.1241
laig	-13.1245
poor	-13.1249
▁ramon	-13.1252
▁furs	-13.126
rosaur	-13.1261
▁lars	-13.1264
▁educate	-13.1267
▁outage	-13.1268
▁popma	-13.1268
▁gree	-13.1271
▁def	-13.1273
▁35	-13.1274
sage	-13.1284
▁leon	-13.1291
rfu	-13.1295
▁conni	-13.1296
dard	-13.1302
▁dispos	-13.1308
▁mongol	-13.1309
▁cartoon	-13.1316
demic	-13.132
▁mandate	-13.1321
ré	-13.1321
▁emitt	-13.1326
▁lunch	-13.1331
neapoli	-13.1333
jet	-13.1342
▁contend	-13.1343
▁feather	-13.1348
▁priv	-13.1351
▁collin	-13.1353
▁pont	-13.1361
earn	-13.1362
hk	-13.1363
▁trivial	-13.1364
wan	-13.1368
▁demis	-13.1369
central	-13.1375
rous	-13.1386
sø	-13.1396
bill	-13.1396
▁fragili	-13.14
▁beache	-13.1402
▁hybrid	-13.1403
lov	-13.1405
▁mitsu	-13.1408
dian	-13.1408
ama	-13.1409
▁subsid	-13.1411
▁basal	-13.1412
▁alternat	-13.1417
egan	-13.142
run	-13.1421
▁rapper	-13.1432
▁infra	-13.1432
evel	-13.1436
steps	-13.1438
▁swans	-13.144
owski	-13.1441
aide	-13.1443
▁burt	-13.1447
bana	-13.145
ash	-13.1451
▁hail	-13.1451
▁berli	-13.1453
▁hydro	-13.1456
ug	-13.1458
dø	-13.1459
▁professors	-13.146
▁finch	-13.146
complete	-13.1461
gent	-13.1463
▁casa	-13.148
▁bosnia	-13.1483
hail	-13.1484
sold	-13.1485
▁pilgrim	-13.149
▁vertebra	-13.149
iệ	-13.1491
▁abrupt	-13.1491
demokrat	-13.1491
▁bequeath	-13.1491
▁constituent	-13.1491
▁dhangar	-13.1491
▁disastrous	-13.1491
▁disgust	-13.1491
▁immense	-13.1491
▁inexperience	-13.1491
▁proponent	-13.1491
▁repetitive	-13.1491
▁rodrigue	-13.1491
▁vaudevill	-13.1491
▁venezuela	-13.1491
▁ibrahim	-13.1491
▁potato	-13.1491
▁staircase	-13.1491
▁unprecedented	-13.1491
▁byzantine	-13.1491
▁czech	-13.1491
▁auckland	-13.1491
▁nominee	-13.1491
▁vulgar	-13.1491
▁penguin	-13.1491
▁thumb	-13.1491
▁aesthetic	-13.1491
▁diarma	-13.1491
▁qualification	-13.1491
▁meadow	-13.1491
▁ordinance	-13.1491
▁maskray	-13.1491
▁fledgling	-13.1491
▁girlfriend	-13.1491
▁sleeve	-13.1491
▁derivative	-13.1491
▁capilla	-13.1491
▁dentist	-13.1492
▁retrospective	-13.1492
▁mozambican	-13.1492
▁solomon	-13.1492
▁lavish	-13.1492
▁landslide	-13.1492
▁jihad	-13.1492
▁pneumonia	-13.1492
▁vowel	-13.1492
▁hadrosaurid	-13.1492
▁treatise	-13.1492
▁puppeteer	-13.1492
▁volley	-13.1492
▁caution	-13.1492
▁potter	-13.1492
arctic	-13.1492
▁columnist	-13.1492
▁sylvia	-13.1492
▁instant	-13.1492
▁destructive	-13.1493
▁disappearance	-13.1493
▁theorist	-13.1493
▁methodist	-13.1493
▁bucket	-13.1493
▁vacation	-13.1493
▁ballot	-13.1493
▁agust	-13.1494
▁manifestation	-13.1494
▁shatter	-13.1494
▁octagon	-13.1494
▁hopeful	-13.1494
▁spillway	-13.1494
▁quotation	-13.1495
▁tsar	-13.1495
▁scarce	-13.1495
▁cinematograph	-13.1495
▁pillar	-13.1495
▁cort	-13.1496
▁eminent	-13.1497
▁mourn	-13.1497
▁trom	-13.1498
▁delight	-13.1498
▁innovati	-13.1498
▁tomorrow	-13.1498
gian	-13.1498
▁contaminat	-13.1499
▁java	-13.1499
▁aviv	-13.1501
▁steeple	-13.1501
ply	-13.1502
opter	-13.1503
▁karnata	-13.1503
▁franciscan	-13.1505
▁flare	-13.1506
▁detector	-13.1509
▁worsen	-13.1509
ussels	-13.1509
▁robber	-13.151
▁backup	-13.1511
ask	-13.1513
▁synthesizer	-13.1513
▁revert	-13.1514
▁tired	-13.1514
▁fé	-13.1514
▁sensor	-13.1516
▁glow	-13.1516
▁shopp	-13.1517
▁eurasia	-13.1517
▁deplet	-13.1518
▁leaf	-13.1523
aría	-13.1523
ferre	-13.1524
vara	-13.1525
bai	-13.1527
▁elevate	-13.1535
▁patriot	-13.1535
▁pathway	-13.1538
▁upward	-13.1542
▁lean	-13.1543
▁adviser	-13.1544
itsu	-13.155
▁evaluati	-13.1552
ark	-13.1556
ane	-13.1564
aim	-13.1564
diocese	-13.1564
▁constructor	-13.1569
▁morpholog	-13.1571
▁cavit	-13.1575
▁trent	-13.1578
seek	-13.1584
▁alma	-13.1585
▁reliev	-13.1587
▁stripe	-13.1588
▁popul	-13.1591
▁locke	-13.1592
▁colt	-13.1592
▁radial	-13.1595
dorf	-13.1596
akin	-13.1601
▁murderer	-13.1605
▁encompass	-13.1608
▁equat	-13.1615
yuki	-13.1618
▁aggregat	-13.162
▁feminist	-13.1622
service	-13.1625
amaz	-13.1628
▁enclos	-13.163
▁divinit	-13.163
ei	-13.1631
▁cinc	-13.1632
▁unsur	-13.1636
▁popularise	-13.1644
eus	-13.1654
lated	-13.1655
▁gait	-13.1667
▁maclag	-13.1669
▁collid	-13.1673
▁bona	-13.1675
▁receiver	-13.1676
doing	-13.1689
constitutional	-13.1692
▁sergi	-13.1693
leg	-13.1696
▁herbi	-13.1699
mede	-13.1707
▁blam	-13.1714
▁kumar	-13.1714
mire	-13.1719
▁mack	-13.1721
door	-13.1722
fest	-13.1724
▁ghats	-13.1724
banks	-13.1726
▁heredit	-13.1738
taker	-13.1738
inter	-13.1741
sell	-13.1744
▁inquir	-13.1752
▁hel	-13.1753
inz	-13.1754
brain	-13.1756
▁fib	-13.1758
zel	-13.1758
▁ditch	-13.1761
tur	-13.1761
ios	-13.1763
▁200	-13.1771
hue	-13.1771
▁gaul	-13.1772
org	-13.1774
▁fins	-13.1779
marine	-13.179
▁equall	-13.1801
synthesis	-13.1807
ban	-13.1814
▁scr	-13.1815
▁boa	-13.1816
▁moralit	-13.1818
lester	-13.1824
▁shu	-13.1832
▁sketche	-13.1833
▁taxe	-13.184
▁nitro	-13.1841
▁bark	-13.1842
lent	-13.1845
sel	-13.1846
mura	-13.1848
▁calculate	-13.1848
oric	-13.1849
▁opener	-13.1857
▁salts	-13.1858
bon	-13.1862
word	-13.1862
bes	-13.1863
atkins	-13.1865
▁penetrat	-13.1869
▁wa	-13.187
▁leukemi	-13.1877
pc	-13.1877
ones	-13.188
▁seas	-13.1888
erner	-13.1888
write	-13.1889
▁differentiate	-13.1889
tion	-13.1893
ashi	-13.1893
▁cruis	-13.1894
date	-13.19
▁comfortabl	-13.1907
fred	-13.1907
▁hack	-13.1922
eff	-13.1922
▁lisb	-13.1924
nike	-13.1924
▁flexib	-13.1928
▁kon	-13.193
▁wield	-13.1933
ribi	-13.1945
abba	-13.1949
erson	-13.195
▁duti	-13.1961
cherr	-13.1961
▁rulers	-13.197
ged	-13.1982
▁compensate	-13.1982
▁unrele	-13.1984
▁packag	-13.1985
▁devot	-13.1989
▁localiz	-13.1989
▁alleg	-13.2
yan	-13.2
tang	-13.2003
▁wadi	-13.2004
▁obscure	-13.2005
▁lust	-13.2008
yama	-13.2009
▁degenerate	-13.201
▁execute	-13.2014
▁mandat	-13.2022
▁plac	-13.2023
▁plank	-13.2024
mitsu	-13.2032
▁qin	-13.2038
▁ceas	-13.2039
▁roos	-13.2041
rush	-13.2042
▁ledge	-13.2048
hammer	-13.2049
▁qu	-13.205
organisation	-13.2054
ucker	-13.2055
accurac	-13.2056
▁fork	-13.206
▁rescu	-13.206
▁26	-13.2062
▁episcopal	-13.2062
▁presiden	-13.2062
▁rep	-13.2065
qui	-13.2068
lit	-13.2078
▁accelerate	-13.208
▁grip	-13.2082
▁mk	-13.2084
▁microscop	-13.2085
thane	-13.2086
▁dome	-13.2094
▁sculpt	-13.2094
▁winters	-13.2097
▁franç	-13.2097
▁lime	-13.2102
mania	-13.2103
elo	-13.2103
▁burden	-13.2104
tate	-13.2107
▁wad	-13.2108
aro	-13.2108
daughter	-13.211
▁gryllotalp	-13.211
▁salon	-13.2111
▁misunderst	-13.2111
▁casua	-13.2111
▁brig	-13.2114
minent	-13.2115
sensitive	-13.2115
▁flint	-13.2116
terrestrial	-13.2116
▁convincing	-13.2116
▁counterfeit	-13.2116
▁enthusiasm	-13.2116
▁extravagan	-13.2116
▁floodplain	-13.2116
▁frankfurt	-13.2116
▁hierarch	-13.2116
▁ingredient	-13.2116
▁kindergarten	-13.2116
▁millimetre	-13.2116
▁nueces	-13.2116
▁pamphlet	-13.2116
▁panzergrenadier	-13.2116
▁ptolem	-13.2116
▁suspicion	-13.2116
▁nutrient	-13.2116
▁phylogenetic	-13.2116
▁veerashaiva	-13.2116
▁dismay	-13.2116
▁heinrich	-13.2116
▁intricate	-13.2116
▁cosmetic	-13.2116
▁diagram	-13.2116
▁muzzle	-13.2116
▁click	-13.2116
▁tavern	-13.2116
▁ridiculous	-13.2116
▁sacrament	-13.2116
▁fleming	-13.2116
▁vatican	-13.2116
▁subplot	-13.2116
▁mercenar	-13.2116
restig	-13.2116
▁backdrop	-13.2116
▁mistress	-13.2116
▁flavor	-13.2116
scapa	-13.2117
▁delegation	-13.2117
▁subfamil	-13.2117
▁surname	-13.2117
▁boycott	-13.2117
▁adjoin	-13.2117
▁gleba	-13.2117
▁caretaker	-13.2117
▁offspring	-13.2117
▁volcano	-13.2117
start	-13.2117
▁resemblance	-13.2117
▁bin	-13.2117
▁submission	-13.2117
▁avatar	-13.2117
▁tempest	-13.2117
▁prescribe	-13.2118
▁scripture	-13.2118
▁bulkhead	-13.2118
▁clinch	-13.2118
▁implication	-13.2118
▁latitude	-13.2118
▁bulb	-13.2118
▁cartridge	-13.2118
▁ankle	-13.2118
▁speckle	-13.2118
▁rehearsal	-13.2118
productive	-13.2119
▁hitler	-13.2119
▁reluctant	-13.2119
▁orientation	-13.2119
▁torso	-13.2119
▁candidac	-13.2119
▁altitude	-13.2119
▁renumber	-13.2119
▁racist	-13.2119
▁crass	-13.2119
▁exemplifie	-13.212
▁benadir	-13.212
▁paratrooper	-13.212
▁diplomat	-13.212
▁sp	-13.2121
▁crater	-13.2121
▁instructor	-13.2121
▁fifteen	-13.2121
▁allusion	-13.2121
▁majest	-13.2123
haraj	-13.2123
▁spout	-13.2123
▁analyst	-13.2123
▁diversion	-13.2124
sipp	-13.2124
▁shutout	-13.2124
▁inappropriate	-13.2125
lawful	-13.2125
▁vivi	-13.2129
▁spaceship	-13.2131
aut	-13.2133
▁bahama	-13.2134
pani	-13.2135
▁synthet	-13.2135
mona	-13.2135
▁gibr	-13.2137
▁taxa	-13.2138
▁vanish	-13.2138
▁veto	-13.2139
▁lambeosaurine	-13.2139
coast	-13.214
▁plead	-13.214
chang	-13.214
stella	-13.2141
guer	-13.2141
citra	-13.2142
▁outpost	-13.2142
lack	-13.2142
▁expell	-13.2144
▁conscript	-13.2144
hav	-13.2147
▁coward	-13.2148
▁marty	-13.2148
aiyu	-13.2149
itch	-13.215
▁passport	-13.2152
▁funera	-13.2154
▁configuration	-13.2155
▁52	-13.2156
▁shawn	-13.2158
▁wrestler	-13.2161
▁guerre	-13.2161
ase	-13.2163
▁vienn	-13.2164
rae	-13.2166
ui	-13.2166
▁howitzer	-13.2169
▁xin	-13.217
auber	-13.2172
▁andré	-13.2172
beam	-13.2173
▁lowe	-13.2176
▁panic	-13.2176
▁imager	-13.2177
▁hostage	-13.2178
▁apprentice	-13.2185
wear	-13.219
▁versa	-13.219
▁disappointing	-13.2195
▁brittan	-13.2196
▁craig	-13.2196
▁kaua	-13.2196
▁jun	-13.2197
▁regulator	-13.2198
▁equator	-13.2199
▁rendering	-13.2199
▁jama	-13.22
▁insan	-13.2206
▁chenn	-13.221
▁ceratopsid	-13.2212
▁hyde	-13.2216
▁ethiopia	-13.2217
▁curl	-13.2218
▁overt	-13.2219
▁enhanc	-13.2219
step	-13.2222
aif	-13.2228
▁relocate	-13.2233
▁conscientious	-13.2236
marri	-13.2236
pel	-13.2237
▁viol	-13.224
▁maha	-13.2244
draft	-13.2246
▁moors	-13.2251
ku	-13.2252
ović	-13.2253
pre	-13.2254
resco	-13.2256
▁alloy	-13.2257
▁projection	-13.2257
lash	-13.2258
▁incidental	-13.2259
ips	-13.2263
bell	-13.2264
▁revolve	-13.2276
▁thom	-13.2278
▁hutch	-13.2279
page	-13.2281
oak	-13.2283
▁cr	-13.2288
▁clever	-13.2291
▁assemble	-13.2292
ning	-13.2292
š	-13.2296
bir	-13.2296
event	-13.2299
▁refin	-13.2306
come	-13.231
▁borgn	-13.231
astra	-13.231
ids	-13.2313
▁lineage	-13.2321
slow	-13.2323
▁curricul	-13.2323
ilia	-13.233
nares	-13.2333
▁lear	-13.2333
▁oversee	-13.2337
buck	-13.2345
▁werne	-13.2348
utter	-13.2348
▁barn	-13.2354
dynastic	-13.2355
▁rook	-13.236
alta	-13.2362
▁penetrate	-13.2367
▁worm	-13.2367
▁retrieve	-13.2369
juno	-13.237
rot	-13.2375
nr	-13.2375
▁milan	-13.2376
▁voter	-13.2378
▁donn	-13.238
▁rushe	-13.2386
chill	-13.2387
ml	-13.2393
▁poki	-13.2397
▁spare	-13.2399
▁graz	-13.2402
eater	-13.2405
kell	-13.2407
▁toro	-13.2416
▁appreciat	-13.2421
lage	-13.2421
connect	-13.2428
nal	-13.2433
▁krishna	-13.2434
▁edwin	-13.2439
▁cultivat	-13.2441
grad	-13.2445
tze	-13.2447
▁reprise	-13.2448
gs	-13.2448
▁spp	-13.2448
▁mould	-13.2449
ailing	-13.2449
crake	-13.2453
▁detract	-13.2454
▁cyclo	-13.2456
▁veil	-13.2461
lt	-13.2464
baum	-13.2465
chemical	-13.2467
▁fis	-13.2467
illo	-13.2469
▁discourage	-13.2472
deep	-13.2476
ender	-13.2476
vine	-13.2483
▁yu	-13.2484
▁goth	-13.2485
kill	-13.2487
vois	-13.2493
inking	-13.2494
lc	-13.2495
▁fruiting	-13.2496
hui	-13.2497
▁claud	-13.2498
▁comp	-13.2498
▁meal	-13.2501
tempo	-13.2504
loo	-13.2505
fi	-13.2508
▁statistical	-13.2511
orda	-13.2512
amps	-13.2515
▁worthing	-13.2516
▁36	-13.2519
▁kenn	-13.2521
▁reuse	-13.2522
questioning	-13.2523
▁activate	-13.2524
▁adorn	-13.2524
▁fence	-13.2528
▁reliabl	-13.253
▁kendal	-13.2531
km	-13.2532
▁gravel	-13.2533
typical	-13.2534
▁isabel	-13.2539
▁solution	-13.2539
phine	-13.2541
rowing	-13.255
▁corrupt	-13.2551
▁pier	-13.2554
ians	-13.2554
zen	-13.2555
▁doc	-13.2556
▁cri	-13.2557
▁lang	-13.256
▁unbea	-13.2561
pit	-13.2564
▁gase	-13.2569
clock	-13.2571
bian	-13.2589
school	-13.2596
tape	-13.2599
rath	-13.2606
▁thak	-13.2612
tian	-13.2616
▁lamin	-13.2617
▁hui	-13.2618
▁prom	-13.2621
arches	-13.2624
▁shame	-13.2625
lton	-13.2627
bia	-13.2629
▁villar	-13.2632
tire	-13.2634
tzpa	-13.2641
determin	-13.2646
ique	-13.2648
hr	-13.2649
▁dar	-13.2649
root	-13.2653
ratio	-13.2654
angels	-13.2657
dres	-13.2659
▁unop	-13.266
▁hank	-13.2661
▁mt	-13.2663
diamonds	-13.2664
ratic	-13.2669
haus	-13.2679
▁bun	-13.2679
▁snell	-13.2679
impress	-13.2681
▁roch	-13.2687
ura	-13.2694
24	-13.27
▁specialis	-13.2704
▁buddh	-13.2705
▁devis	-13.2705
▁nad	-13.2707
▁hammer	-13.2712
iett	-13.2715
▁antioch	-13.2717
▁laps	-13.2719
▁georg	-13.2719
ervis	-13.2719
elimina	-13.272
▁wis	-13.2722
▁gala	-13.2723
▁choos	-13.2732
fund	-13.2736
▁franco	-13.2738
▁abusi	-13.274
▁vegeta	-13.2741
mines	-13.2743
▁refit	-13.2743
nelli	-13.2746
▁amber	-13.2749
▁57	-13.2749
system	-13.2752
tel	-13.2763
▁dante	-13.2765
▁simm	-13.2765
thic	-13.2771
▁prophet	-13.2775
▁deserve	-13.2776
▁denote	-13.2776
oth	-13.2776
▁deacon	-13.2777
▁bate	-13.2777
capul	-13.2778
▁mulle	-13.2778
▁scrub	-13.2778
▁quarte	-13.2779
▁erupt	-13.2779
nsb	-13.2779
▁manifest	-13.278
▁compatib	-13.2781
▁bron	-13.2782
ata	-13.2782
apse	-13.2782
atum	-13.2782
punctat	-13.2783
spisevognselskap	-13.2783
▁constellation	-13.2783
▁disembark	-13.2783
▁efficienc	-13.2783
▁guatemala	-13.2783
▁messenger	-13.2783
▁paradigm	-13.2783
▁precinct	-13.2783
▁reggae	-13.2783
▁tatanka	-13.2783
▁idyll	-13.2783
▁apologize	-13.2783
▁classify	-13.2783
▁fatigue	-13.2783
▁mysore	-13.2783
▁justify	-13.2783
▁transplant	-13.2783
▁bahá	-13.2783
▁stupid	-13.2783
▁comrade	-13.2783
▁tentative	-13.2783
▁clamp	-13.2783
▁referendum	-13.2783
▁enclosure	-13.2783
▁coyote	-13.2783
▁humour	-13.2783
▁judgment	-13.2783
▁arbeideren	-13.2783
▁cunning	-13.2783
▁maritime	-13.2783
▁audiobook	-13.2783
▁splinter	-13.2783
▁vasco	-13.2783
▁hamburg	-13.2783
▁nguy	-13.2783
▁pornographic	-13.2784
▁persecution	-13.2784
▁masterpiece	-13.2784
▁dignity	-13.2784
▁paternal	-13.2784
▁inocyb	-13.2784
▁anglica	-13.2784
▁slant	-13.2785
hilo	-13.2785
▁bedroom	-13.2785
▁nickel	-13.2785
▁certification	-13.2786
▁saddle	-13.2786
▁visor	-13.2786
▁mead	-13.2786
▁fourteen	-13.2786
1860	-13.2787
▁vizier	-13.2787
▁moham	-13.2787
▁boliv	-13.2787
turmo	-13.2787
▁zimmerman	-13.2787
▁tsuba	-13.2788
▁nymph	-13.2788
▁ninja	-13.2788
▁broadside	-13.2789
▁roster	-13.2789
▁denot	-13.2789
spheric	-13.2789
▁doorway	-13.2789
▁piston	-13.2789
▁subtype	-13.2791
▁harass	-13.2791
▁totten	-13.2792
taking	-13.2793
▁tanner	-13.2793
▁contradiction	-13.2794
▁cameron	-13.2794
▁posture	-13.2794
nile	-13.2796
▁lacta	-13.2797
▁airpla	-13.28
oroz	-13.28
▁froze	-13.2801
▁alaska	-13.2801
caus	-13.2801
purana	-13.2802
▁kai	-13.2803
▁percussion	-13.2803
darpa	-13.2805
▁rejection	-13.2805
▁classmate	-13.2807
▁reunit	-13.281
▁julius	-13.2811
baden	-13.2811
▁nicola	-13.2812
▁verne	-13.2814
hop	-13.2814
▁swim	-13.2816
▁minus	-13.2817
▁gems	-13.282
▁jesuit	-13.2824
zart	-13.2826
▁virgi	-13.2827
▁carpet	-13.2829
kins	-13.283
▁takum	-13.2831
luxe	-13.2833
▁morocc	-13.2833
eley	-13.2835
▁barret	-13.2836
▁amazon	-13.2837
▁laughing	-13.2837
▁bros	-13.2839
tries	-13.284
▁confess	-13.2842
▁mcma	-13.2844
ree	-13.2847
▁graci	-13.285
audi	-13.285
ammy	-13.2853
▁nucleol	-13.2853
▁screw	-13.2853
▁allegor	-13.2854
faro	-13.2858
▁wiede	-13.2858
graha	-13.2861
▁bayer	-13.2867
▁llan	-13.2873
ye	-13.2873
▁triangula	-13.2873
▁chay	-13.2875
▁utilize	-13.2876
▁alamo	-13.2877
sler	-13.2883
▁sampl	-13.2883
sued	-13.2884
▁contributor	-13.2885
▁muster	-13.289
▁meri	-13.289
▁abdom	-13.2898
▁plume	-13.2902
▁obscur	-13.2903
▁imag	-13.2905
tte	-13.2906
▁gre	-13.2907
▁lex	-13.2909
▁holland	-13.2913
croy	-13.2916
▁trev	-13.2916
omach	-13.2918
▁santi	-13.2919
▁candidat	-13.2926
▁manipulate	-13.2929
▁mob	-13.2931
few	-13.2932
▁nige	-13.2932
▁renovat	-13.2933
nato	-13.2934
▁pecki	-13.2935
scopic	-13.2936
▁aldea	-13.2941
novo	-13.2949
abor	-13.2953
text	-13.2954
▁sav	-13.2954
▁pub	-13.2955
rizon	-13.2956
▁fu	-13.2957
aca	-13.2959
▁mag	-13.2961
eye	-13.2964
▁pu	-13.2964
▁mixe	-13.2965
▁lae	-13.297
sworth	-13.2971
parte	-13.2972
▁gear	-13.2974
homa	-13.2974
radar	-13.2977
nagar	-13.2978
cological	-13.2979
▁crust	-13.2989
▁dive	-13.2993
▁podium	-13.2997
clips	-13.3001
▁proportional	-13.3006
heart	-13.3006
▁accessor	-13.3017
tool	-13.3018
▁educat	-13.3018
▁monte	-13.302
▁employer	-13.3021
tri	-13.3021
▁mantelli	-13.3022
anama	-13.3035
▁fable	-13.3035
▁consecrat	-13.3038
gott	-13.3039
erle	-13.3041
▁procession	-13.3048
tip	-13.3052
confirm	-13.3054
delbac	-13.3056
▁kara	-13.3057
▁raf	-13.3062
brand	-13.3071
▁maze	-13.3073
ht	-13.3074
▁polici	-13.3077
aving	-13.3088
▁confin	-13.3101
aj	-13.3102
▁taper	-13.3107
thin	-13.311
▁array	-13.3112
▁serialis	-13.3112
linear	-13.3113
role	-13.312
té	-13.3135
▁andrews	-13.3138
sphere	-13.3138
tend	-13.314
▁excellen	-13.3142
▁eclipse	-13.3146
kitan	-13.3146
▁charg	-13.3147
rex	-13.3148
▁thorn	-13.315
▁piers	-13.3152
▁dreamer	-13.3154
▁conn	-13.3156
▁conra	-13.3157
▁aaa	-13.3162
▁persuad	-13.3164
handler	-13.3165
▁clause	-13.3167
▁rever	-13.3169
nol	-13.3173
▁recycl	-13.3174
user	-13.3177
▁sca	-13.318
occupie	-13.3187
▁beverl	-13.3188
▁puts	-13.3189
▁inevitabl	-13.319
▁subgen	-13.3191
▁yea	-13.3191
▁rub	-13.3195
aragua	-13.3195
pet	-13.3206
bark	-13.3207
▁dependenc	-13.3208
▁galericulat	-13.3209
▁hartman	-13.3223
▁slaughter	-13.3223
ridges	-13.3225
toir	-13.323
xia	-13.3231
oke	-13.3232
▁rude	-13.3236
lead	-13.3238
▁freeze	-13.3239
ital	-13.324
lais	-13.3241
▁replica	-13.3241
▁implie	-13.3242
▁evoke	-13.3244
▁shorts	-13.3245
▁stimulate	-13.3246
nsis	-13.325
▁cros	-13.325
yah	-13.3251
ego	-13.3255
transport	-13.3256
fford	-13.3258
▁pi	-13.3265
▁boe	-13.3269
ega	-13.327
ooley	-13.3272
lans	-13.3272
▁behave	-13.3278
lorn	-13.3279
▁monopol	-13.3282
▁chat	-13.3284
▁detonat	-13.3285
▁rao	-13.3286
▁freez	-13.3287
bring	-13.3288
▁inflat	-13.3291
▁swan	-13.3291
chew	-13.3292
nx	-13.33
▁maryl	-13.3303
▁consul	-13.3304
fluoride	-13.3305
▁geometr	-13.3307
▁wisd	-13.331
via	-13.331
ssen	-13.3313
▁vacan	-13.3315
▁dishe	-13.3315
▁lend	-13.3317
▁premi	-13.3319
▁gamma	-13.332
pace	-13.332
fur	-13.3324
▁cry	-13.3327
▁ordinat	-13.3328
orthodox	-13.333
trans	-13.3331
atlantic	-13.3335
bart	-13.3335
bl	-13.3336
sagin	-13.3342
lung	-13.3342
▁faci	-13.3344
tiful	-13.3348
▁machi	-13.335
▁glid	-13.3352
▁ethic	-13.3354
lsu	-13.3358
▁ludwi	-13.336
▁aft	-13.3362
decided	-13.3364
kiri	-13.3372
ional	-13.3382
owitz	-13.3384
▁hartle	-13.3385
eo	-13.3386
▁mackina	-13.3391
▁tata	-13.3397
▁shake	-13.34
ntus	-13.341
▁induce	-13.3414
▁dove	-13.3415
mela	-13.3423
▁ivor	-13.3429
dance	-13.3432
▁simulate	-13.3433
ides	-13.3436
virus	-13.3436
big	-13.3439
utla	-13.3442
▁dash	-13.3447
erek	-13.3448
▁reproduce	-13.345
▁reunion	-13.3459
▁bag	-13.346
hant	-13.3461
▁bridg	-13.3463
hāv	-13.3465
▁tipp	-13.347
editor	-13.3471
▁dose	-13.3471
▁profession	-13.3474
▁tea	-13.3478
▁cubic	-13.3481
▁kama	-13.3482
▁nazis	-13.3482
▁storytell	-13.3483
▁elegan	-13.3486
▁hath	-13.3487
▁suspens	-13.3487
belt	-13.3488
swap	-13.3493
▁automat	-13.3493
▁wolver	-13.3496
▁furni	-13.3496
▁prognos	-13.3497
incendi	-13.3497
▁contingent	-13.3497
▁madhva	-13.3497
▁nightclub	-13.3497
▁precursor	-13.3497
▁syndrome	-13.3497
▁ambiguous	-13.3497
▁aristocrat	-13.3497
▁inconsistenc	-13.3497
▁liga	-13.3497
▁sovetsk	-13.3497
▁applicant	-13.3497
▁leisure	-13.3497
▁roadblock	-13.3497
▁signify	-13.3497
▁leopard	-13.3497
▁linebacker	-13.3497
▁perimeter	-13.3497
▁eternal	-13.3497
▁vă	-13.3497
▁miracle	-13.3497
▁necklace	-13.3497
▁selenite	-13.3497
▁cinque	-13.3497
▁adolf	-13.3497
▁celestial	-13.3497
▁sybil	-13.3497
▁seldom	-13.3497
▁gesture	-13.3497
▁bolster	-13.3497
▁overthrow	-13.3497
▁revamp	-13.3497
ernst	-13.3497
▁reuter	-13.3497
▁energetic	-13.3498
▁pleasant	-13.3498
▁stipe	-13.3498
▁inhalation	-13.3498
▁quarry	-13.3498
▁nightmare	-13.3498
▁subdivision	-13.3498
oahu	-13.3498
▁frill	-13.3498
▁ukrainian	-13.3498
▁bishopric	-13.3498
▁filter	-13.3498
▁reservation	-13.3498
▁computation	-13.3498
▁simulator	-13.3498
▁serpent	-13.3498
▁marseille	-13.3498
▁typewriter	-13.3499
wetter	-13.3499
▁enrollment	-13.3499
▁warehouse	-13.3499
▁prasad	-13.3499
▁calibre	-13.3499
▁compulsor	-13.3499
▁fresco	-13.3499
▁stalin	-13.3499
▁liberator	-13.3499
▁emigration	-13.3499
▁microlight	-13.35
▁ribbon	-13.35
▁shortlist	-13.3501
▁fieldfare	-13.3501
▁motivation	-13.3501
▁inspection	-13.3501
▁emit	-13.3501
▁harper	-13.3502
hinke	-13.3502
▁viper	-13.3503
▁groen	-13.3503
▁collegi	-13.3503
▁carriageway	-13.3503
▁rubin	-13.3504
▁wolve	-13.3504
▁isolation	-13.3505
▁contraceptive	-13.3505
▁freighter	-13.3506
▁chicken	-13.3506
▁overlapp	-13.3507
▁crossover	-13.3507
ida	-13.3507
▁juice	-13.3507
▁abandonment	-13.3508
▁pluto	-13.3509
odium	-13.3509
▁raven	-13.3509
▁magno	-13.351
▁newborn	-13.351
▁anatolia	-13.351
▁iceland	-13.351
▁arro	-13.351
▁stunning	-13.351
difference	-13.3511
▁deposition	-13.3512
▁turnover	-13.3512
cular	-13.3512
flower	-13.3512
composition	-13.3513
▁peat	-13.3514
▁areolat	-13.3515
▁zoe	-13.3515
▁resonan	-13.3516
▁inaugurat	-13.3516
▁restructur	-13.3518
▁gallon	-13.3519
▁personalit	-13.3519
▁propulsi	-13.3519
▁resid	-13.3519
▁setback	-13.3521
▁skeptic	-13.3522
▁collaborator	-13.3523
▁benz	-13.3525
▁pok	-13.3525
▁coordinati	-13.3526
▁jeffr	-13.3529
▁spouse	-13.3529
▁blessing	-13.3531
▁mitochondria	-13.3532
▁continuation	-13.3532
wana	-13.3534
▁impose	-13.3536
▁nurs	-13.3537
▁milestone	-13.3537
▁72	-13.3539
siris	-13.354
▁auditor	-13.3547
▁directive	-13.355
▁entertainer	-13.3552
roupe	-13.3557
▁bench	-13.3558
yer	-13.3558
▁nico	-13.3561
weig	-13.3562
conical	-13.3564
▁consideration	-13.3567
▁strach	-13.3568
urstin	-13.3569
▁labori	-13.3569
▁yang	-13.3569
▁afore	-13.3569
speak	-13.3569
▁narrate	-13.3571
▁segregat	-13.3572
cea	-13.3573
▁taber	-13.3575
▁synthesiz	-13.3579
erics	-13.3579
▁wang	-13.3581
▁rugge	-13.3584
▁planner	-13.3587
▁pandu	-13.3589
fusion	-13.3589
▁majors	-13.3596
want	-13.3598
41	-13.3599
charge	-13.36
▁unreliab	-13.3609
gus	-13.361
olithic	-13.3611
pao	-13.3611
▁wagon	-13.3612
bergen	-13.3622
▁abnormalit	-13.3626
▁southwester	-13.363
▁stemm	-13.3633
bre	-13.3635
▁pursuer	-13.3639
▁khe	-13.3641
lady	-13.3642
▁antique	-13.3647
pri	-13.3647
▁coma	-13.3651
▁menu	-13.3651
▁jamaica	-13.3652
▁shak	-13.3653
▁regulat	-13.3655
sular	-13.3657
hane	-13.3658
shoe	-13.3659
▁cheat	-13.3663
enter	-13.3665
kara	-13.3667
▁geographical	-13.3667
nad	-13.367
▁cooks	-13.3675
god	-13.3676
▁mule	-13.3676
fis	-13.3676
dah	-13.3676
▁gac	-13.3677
▁traveller	-13.3679
wski	-13.368
▁richards	-13.3681
una	-13.3681
pecki	-13.3682
ame	-13.3683
▁archie	-13.3689
sā	-13.3692
▁embodi	-13.3692
▁dow	-13.3694
▁liver	-13.3698
▁procure	-13.3699
▁arsen	-13.3699
▁serializ	-13.3703
ratz	-13.3705
rice	-13.3706
wasp	-13.3708
▁secondar	-13.3709
nas	-13.3712
wak	-13.3712
nes	-13.3713
▁petri	-13.3715
▁narrati	-13.3721
congregationalis	-13.3734
▁enforc	-13.3735
holm	-13.3738
▁northwester	-13.3739
▁kaj	-13.3739
▁manse	-13.3754
path	-13.3756
▁cracks	-13.3757
ecu	-13.3761
section	-13.3765
▁beeth	-13.3776
▁gama	-13.3778
rig	-13.3778
michael	-13.3779
oshi	-13.378
▁kur	-13.3784
▁mana	-13.3785
napper	-13.3785
eter	-13.3788
▁cop	-13.3788
rell	-13.3789
▁priva	-13.3798
parallel	-13.3798
okan	-13.3801
ayne	-13.3806
▁vai	-13.3812
ulam	-13.3815
▁fledg	-13.3817
▁sheen	-13.3819
log	-13.3822
▁yog	-13.3831
▁stole	-13.3834
mass	-13.3834
▁substitut	-13.3838
sun	-13.3839
▁facilitat	-13.3842
colour	-13.3845
▁gr	-13.3852
bolt	-13.3856
rift	-13.3857
ailz	-13.386
▁summar	-13.3863
wii	-13.3866
▁garret	-13.3868
wn	-13.3873
kona	-13.3874
ost	-13.3877
scape	-13.3879
▁surf	-13.3889
▁coil	-13.3891
cultural	-13.3892
dead	-13.3893
reed	-13.3893
bad	-13.3897
urti	-13.3899
idas	-13.3903
mca	-13.3905
political	-13.3906
cord	-13.3906
▁duel	-13.3908
▁confine	-13.391
llen	-13.3912
▁fuck	-13.3915
dal	-13.3916
agement	-13.392
▁prioriti	-13.3921
anata	-13.3922
▁punctuat	-13.3929
easa	-13.393
lá	-13.3938
alden	-13.3938
▁hitch	-13.3942
▁brow	-13.3942
▁heath	-13.3946
▁mik	-13.3946
▁canne	-13.3946
▁fracture	-13.3954
▁kelle	-13.3954
▁babylonia	-13.3959
pod	-13.3962
▁dela	-13.3962
▁nichol	-13.3963
▁dominan	-13.3965
▁porter	-13.3966
▁flo	-13.398
▁athen	-13.3981
hora	-13.3986
ino	-13.3988
nu	-13.3989
▁interfere	-13.3992
male	-13.3997
▁venerat	-13.3998
▁infer	-13.4003
stand	-13.4003
ration	-13.4004
▁dick	-13.4005
mous	-13.4014
▁eight	-13.4015
21	-13.4017
▁va	-13.4026
▁sophisticat	-13.4028
tama	-13.4038
og	-13.4038
ttle	-13.4041
▁unifi	-13.4046
pal	-13.4046
▁continent	-13.405
kern	-13.4051
▁dismisse	-13.4052
▁curse	-13.4053
▁spurr	-13.4056
▁salv	-13.4057
important	-13.4061
▁maids	-13.4061
▁chariot	-13.4063
gear	-13.4063
▁terri	-13.4065
▁trib	-13.407
phi	-13.4071
cystidi	-13.4072
days	-13.4075
ayana	-13.4076
▁martel	-13.4077
▁lounge	-13.408
emma	-13.408
pathetic	-13.4093
arvin	-13.4102
unch	-13.4103
ivalent	-13.4103
▁trainer	-13.4105
mara	-13.4105
llier	-13.4112
▁sicil	-13.4112
▁coordinate	-13.4117
salis	-13.4119
resent	-13.4122
▁pledg	-13.4128
▁stereo	-13.4128
▁regret	-13.4132
tara	-13.4133
▁gir	-13.4136
kit	-13.4139
ilke	-13.4145
osphere	-13.4146
▁smuggl	-13.4147
rought	-13.4149
▁feli	-13.415
ester	-13.4154
▁shah	-13.4155
aroque	-13.4156
ilda	-13.416
march	-13.4162
▁je	-13.4163
rov	-13.4165
▁splic	-13.4172
kaz	-13.4174
nder	-13.4176
▁hob	-13.4177
dos	-13.4185
▁pé	-13.4186
itude	-13.4192
▁tun	-13.4193
▁shower	-13.4196
▁plea	-13.4203
mare	-13.4204
▁whiske	-13.4208
▁babe	-13.4208
yi	-13.421
ovite	-13.421
pard	-13.4214
▁pawn	-13.4214
▁conformation	-13.4215
▁seer	-13.4217
▁relativ	-13.4218
▁mimic	-13.4223
▁invok	-13.4226
opolitan	-13.4227
▁digit	-13.4228
▁legislati	-13.4228
naya	-13.4228
hemica	-13.423
escu	-13.423
▁presid	-13.4232
stic	-13.4234
▁heartbreak	-13.4234
baker	-13.4234
▁ascen	-13.4236
▁buck	-13.424
▁annoy	-13.424
▁reconcili	-13.4251
▁rabbi	-13.4254
▁freight	-13.4257
nall	-13.4259
raj	-13.426
cio	-13.426
▁exam	-13.4261
▁brahma	-13.4262
▁exert	-13.4263
joy	-13.4264
▁ishmael	-13.4266
▁extras	-13.4266
hudders	-13.4266
▁astronaut	-13.4266
▁carnegie	-13.4266
▁cladogram	-13.4266
▁confederac	-13.4266
▁disillusion	-13.4266
▁dissatisf	-13.4266
▁ectomycorrhiza	-13.4266
▁erroneous	-13.4266
▁façade	-13.4266
▁intermittent	-13.4266
▁lombard	-13.4266
▁masculin	-13.4266
▁outflank	-13.4266
▁overshadow	-13.4266
▁pedestrian	-13.4266
▁premature	-13.4266
▁quarterfinal	-13.4266
▁scientologist	-13.4266
▁sihanouk	-13.4266
▁unpredictab	-13.4266
▁cytogenetic	-13.4266
▁discount	-13.4266
▁pencil	-13.4266
aqqa	-13.4266
▁disgrace	-13.4266
▁hectare	-13.4266
▁ineffective	-13.4266
▁hilarious	-13.4266
łady	-13.4266
▁bayonet	-13.4266
▁martín	-13.4266
▁cistern	-13.4266
▁discredit	-13.4266
▁indemni	-13.4266
▁microphone	-13.4266
tiè	-13.4266
▁egyptologist	-13.4266
état	-13.4267
▁acquaintance	-13.4267
▁balloon	-13.4267
▁nocturn	-13.4267
▁amusement	-13.4267
▁transept	-13.4267
▁antelope	-13.4267
▁bourbon	-13.4267
▁wrist	-13.4267
▁tanzania	-13.4267
▁geologist	-13.4267
elecommunication	-13.4267
▁contracepti	-13.4267
▁incense	-13.4267
▁insurgenc	-13.4267
▁copyright	-13.4267
▁jeep	-13.4267
▁sociologist	-13.4267
▁spruce	-13.4267
▁bizarre	-13.4267
▁crude	-13.4267
▁fundamentalist	-13.4267
▁fauna	-13.4267
▁futa	-13.4267
▁hetman	-13.4267
▁redeem	-13.4267
▁wilderness	-13.4267
▁kemal	-13.4267
▁vineyard	-13.4267
▁hispanic	-13.4267
▁mecca	-13.4267
midship	-13.4267
▁rainbow	-13.4268
▁preview	-13.4268
▁goalkeeper	-13.4268
▁trash	-13.4268
wazi	-13.4268
▁spiral	-13.4268
mat	-13.4268
▁peripheral	-13.4268
▁thrust	-13.4268
▁reroute	-13.4268
▁webb	-13.4268
▁pilgrimage	-13.4269
▁aaron	-13.4269
▁león	-13.4269
▁kinney	-13.4269
apparat	-13.4269
▁screenwriter	-13.4269
ovation	-13.4269
▁contestant	-13.4269
▁inclin	-13.4269
▁disqualifi	-13.4269
▁eduard	-13.427
▁accompaniment	-13.427
▁gavin	-13.4271
▁porch	-13.4271
▁attachment	-13.4271
sephi	-13.4271
▁croat	-13.4272
▁implementation	-13.4272
▁overpass	-13.4273
urine	-13.4273
▁susanna	-13.4273
▁confer	-13.4273
▁hunger	-13.4273
▁mul	-13.4273
▁fibre	-13.4274
emia	-13.4274
▁banish	-13.4275
▁johannes	-13.4275
pat	-13.4275
▁kitty	-13.4275
▁engraving	-13.4276
▁bundle	-13.4276
▁fuji	-13.4276
▁montenegrin	-13.4276
▁hasti	-13.4276
▁parson	-13.4277
▁pedal	-13.4277
bara	-13.4277
▁animator	-13.4278
▁disk	-13.4278
▁ancestral	-13.4278
▁polluti	-13.4278
▁investigator	-13.4278
▁vicker	-13.4279
▁unpai	-13.428
▁hernan	-13.428
▁feudal	-13.4281
▁constraint	-13.4281
timor	-13.4281
wru	-13.4281
▁optical	-13.4282
▁motorist	-13.4282
▁elegant	-13.4282
▁grenade	-13.4283
▁socks	-13.4283
rigg	-13.4284
nock	-13.4284
palin	-13.4284
eoscapterisc	-13.4285
▁piazz	-13.4288
▁dodger	-13.4288
▁xeo	-13.4288
▁restless	-13.4289
▁fertilizer	-13.4289
▁husse	-13.429
▁mcka	-13.4291
▁palestr	-13.4294
sportsman	-13.4296
▁rené	-13.4296
▁lecture	-13.4297
▁whites	-13.4297
dyne	-13.4297
▁microscope	-13.4298
uan	-13.4298
▁denial	-13.4299
▁toss	-13.4301
▁preparat	-13.4303
roud	-13.4303
▁outlin	-13.4304
▁michelin	-13.4306
▁bidd	-13.4307
rical	-13.4309
▁unseen	-13.431
▁playground	-13.431
▁powder	-13.4311
▁irb	-13.4311
▁pl	-13.4312
▁discretion	-13.4313
kicker	-13.4315
▁thirt	-13.4316
▁imitat	-13.4318
rods	-13.4318
verness	-13.4319
▁invert	-13.432
rodden	-13.432
▁correction	-13.4323
ngdong	-13.4326
▁parkway	-13.4326
hler	-13.4329
mpton	-13.433
bm	-13.4336
▁stegosaurid	-13.4336
major	-13.4337
▁scarlet	-13.4339
▁darling	-13.4341
jima	-13.4342
▁lobby	-13.4342
zak	-13.4345
▁roug	-13.4346
▁nebul	-13.4349
▁kissing	-13.4357
essential	-13.436
eh	-13.436
▁excommunicat	-13.436
▁fictionaliz	-13.4364
adi	-13.4367
video	-13.4367
▁gonzale	-13.4371
uci	-13.4372
weller	-13.4377
▁boxer	-13.4379
nforcement	-13.438
▁florenc	-13.4381
▁lookout	-13.4381
▁kress	-13.4382
▁wipe	-13.4389
▁bra	-13.439
▁tablet	-13.4391
▁reproductive	-13.4395
▁ribosome	-13.4396
▁compress	-13.4399
▁isaac	-13.4403
▁logg	-13.4403
introduction	-13.4403
rkshire	-13.4404
manches	-13.4404
icea	-13.4405
▁dem	-13.4406
rtha	-13.4407
rb	-13.4409
ky	-13.441
▁upright	-13.4411
▁uphold	-13.4412
▁bhai	-13.4415
65	-13.4416
▁carly	-13.4416
▁fuller	-13.4419
▁molt	-13.4421
orton	-13.4429
ely	-13.4431
▁thank	-13.4434
iff	-13.4436
nm	-13.4439
▁sinner	-13.444
tsuki	-13.4441
value	-13.4442
claim	-13.4442
black	-13.4444
▁expresse	-13.4445
▁woo	-13.4447
▁comput	-13.4447
▁inaugurati	-13.4447
▁timeline	-13.4453
make	-13.4457
▁montagn	-13.446
▁plagiaris	-13.4461
kram	-13.4461
▁caste	-13.4465
par	-13.4481
▁kno	-13.4482
▁turtle	-13.4483
▁peri	-13.4489
press	-13.4489
▁improvis	-13.4491
aval	-13.4491
▁sayi	-13.4492
▁carve	-13.4493
▁stephan	-13.4493
▁glori	-13.4496
rostr	-13.4496
▁drafte	-13.4497
ider	-13.4497
▁mcal	-13.45
▁bab	-13.4503
vy	-13.4505
▁lonel	-13.4505
▁casin	-13.4508
▁plural	-13.4511
committee	-13.4511
fields	-13.4512
ff	-13.4515
▁thurs	-13.4518
▁mod	-13.4519
done	-13.452
bain	-13.4521
sp	-13.4524
▁wrestle	-13.4528
arta	-13.4528
andra	-13.4531
wit	-13.4532
pose	-13.4532
▁imagin	-13.4533
respective	-13.4533
▁embrac	-13.454
gany	-13.4542
▁robb	-13.4543
▁abduct	-13.4545
tent	-13.4546
▁sentenc	-13.4546
rington	-13.4554
lope	-13.4557
▁suf	-13.4558
▁inlet	-13.4563
▁storey	-13.4564
▁robbi	-13.4565
▁epip	-13.4566
▁kud	-13.457
▁prow	-13.4571
▁pitche	-13.4572
sheet	-13.4575
▁44	-13.4577
iardo	-13.4579
ouw	-13.458
▁oval	-13.4583
ushing	-13.4585
▁emil	-13.4587
▁vale	-13.4587
▁tilt	-13.4589
▁nut	-13.459
vich	-13.459
▁vapor	-13.4592
▁sara	-13.4592
type	-13.4592
ition	-13.4593
▁solub	-13.4593
▁dart	-13.4594
gregor	-13.4599
▁lil	-13.4603
▁vita	-13.461
chloride	-13.4611
arr	-13.4612
▁lenin	-13.4614
tha	-13.4616
▁dunk	-13.4616
eters	-13.4623
aids	-13.4628
▁bust	-13.4635
girl	-13.4635
cit	-13.4635
▁flourish	-13.4637
▁laure	-13.4638
▁differentiati	-13.464
▁dismantl	-13.4644
▁suck	-13.4647
reth	-13.4647
▁manito	-13.4652
rico	-13.4657
mia	-13.4662
▁forb	-13.4666
neil	-13.4666
▁viola	-13.4676
belle	-13.468
18	-13.468
ä	-13.4683
▁cds	-13.4683
▁shapes	-13.4684
▁phenomena	-13.4689
▁guru	-13.4689
olo	-13.4693
ob	-13.4696
▁axe	-13.4699
▁nord	-13.4699
▁pile	-13.4702
▁socio	-13.4705
▁iodi	-13.4708
aker	-13.471
wer	-13.4711
▁specialize	-13.4717
atus	-13.4719
▁por	-13.4727
relationship	-13.4732
▁larg	-13.4736
▁warne	-13.4741
deo	-13.4744
upri	-13.4745
▁psychiatri	-13.4748
▁friar	-13.4752
responding	-13.4754
▁grie	-13.4754
▁tick	-13.4761
vor	-13.4767
▁bak	-13.4769
uwan	-13.477
▁mono	-13.4771
sium	-13.478
nacle	-13.4784
ges	-13.4788
▁robes	-13.479
brows	-13.4793
▁sandwich	-13.4797
▁vir	-13.4803
aya	-13.4808
entr	-13.4811
▁embrace	-13.4812
▁automobile	-13.4814
kes	-13.4816
circular	-13.4824
burt	-13.4824
▁mash	-13.4826
▁cand	-13.4826
▁stereotype	-13.4828
oping	-13.4829
▁motive	-13.4834
ast	-13.4838
▁scal	-13.4842
▁blade	-13.4843
ncona	-13.4848
▁lanka	-13.485
▁immun	-13.485
amara	-13.4856
▁fulb	-13.4856
▁manda	-13.4865
asi	-13.4866
ennant	-13.4868
geworth	-13.4868
fax	-13.4872
▁attache	-13.4877
mir	-13.4883
sak	-13.4884
cello	-13.4884
▁sid	-13.4885
▁fr	-13.4894
ander	-13.4896
aak	-13.4901
beit	-13.4901
▁outward	-13.4904
class	-13.4907
etary	-13.4911
13	-13.4912
nea	-13.4912
▁cath	-13.4914
12	-13.4917
▁42	-13.4917
ologist	-13.4918
deed	-13.4918
eau	-13.4919
nts	-13.4923
▁hacker	-13.4924
▁rosa	-13.4924
▁taxonomic	-13.4924
▁solitar	-13.4925
▁jig	-13.4926
▁hole	-13.4927
▁basidi	-13.4935
wo	-13.4937
bin	-13.4942
▁mum	-13.4944
▁spectac	-13.4944
uke	-13.4944
▁swor	-13.4946
metric	-13.4946
▁centen	-13.4947
lois	-13.4948
lich	-13.495
ohn	-13.495
nit	-13.4954
erie	-13.4955
pede	-13.4957
fluent	-13.4961
▁rehabilitati	-13.4961
kou	-13.497
eith	-13.4971
channel	-13.4972
dar	-13.4973
titude	-13.4978
▁symbolize	-13.498
linda	-13.4984
▁piz	-13.4988
raft	-13.499
▁slit	-13.4992
sight	-13.4997
▁jac	-13.4997
▁replicat	-13.5001
prop	-13.5005
mr	-13.501
▁parall	-13.5012
▁facto	-13.5016
▁foli	-13.5017
pollo	-13.5018
▁delet	-13.5019
▁cara	-13.5022
ias	-13.5024
▁ripp	-13.5027
▁mycena	-13.5029
hange	-13.5029
▁hens	-13.503
▁elongat	-13.503
dc	-13.5034
▁steff	-13.5035
singer	-13.5035
▁terrif	-13.5037
▁comb	-13.5043
vet	-13.5044
▁joann	-13.5047
▁mom	-13.5052
puri	-13.5054
▁jewell	-13.5066
sine	-13.5068
▁applau	-13.507
kedar	-13.5071
▁jell	-13.5077
olds	-13.508
▁logistic	-13.5081
▁cylind	-13.5085
elvis	-13.5089
affir	-13.509
▁defect	-13.5091
▁cui	-13.5092
▁24	-13.5093
factor	-13.5093
▁inject	-13.5095
syrian	-13.5096
pant	-13.5097
oë	-13.5097
▁wander	-13.5098
okla	-13.5098
▁orphan	-13.5099
▁paradox	-13.5099
▁predominate	-13.51
▁redoubt	-13.51
ễ	-13.51
ỳ	-13.51
▁awkward	-13.51
▁caricature	-13.51
▁compendium	-13.51
▁forelimb	-13.51
▁frieze	-13.51
▁gloucester	-13.51
▁lanthanide	-13.51
▁merchandis	-13.51
▁practitioner	-13.51
▁pudding	-13.51
▁quarrel	-13.51
▁reuben	-13.51
▁subfossil	-13.51
▁susceptib	-13.51
▁syphili	-13.51
▁vampire	-13.51
▁coffin	-13.51
▁monologue	-13.51
▁mosquito	-13.51
▁piercing	-13.51
▁forfeit	-13.51
▁bahrain	-13.51
▁hebride	-13.51
▁kaufman	-13.51
▁worcestershire	-13.51
▁aquatic	-13.51
▁ceramic	-13.51
bungie	-13.51
▁cigarette	-13.51
▁cautious	-13.51
▁cockpit	-13.51
▁mithra	-13.51
▁saloon	-13.51
▁improper	-13.51
▁yucat	-13.51
▁meredith	-13.51
▁zygo	-13.51
▁promiscuous	-13.51
▁polygamist	-13.51
▁reissue	-13.51
▁spindle	-13.51
▁excuse	-13.51
▁indenture	-13.51
▁euph	-13.51
▁rutger	-13.51
▁transaction	-13.51
▁steroid	-13.51
▁mechaniz	-13.51
honol	-13.51
▁magnific	-13.51
▁inhibit	-13.51
▁beetle	-13.51
▁ragale	-13.51
▁deuter	-13.51
▁illusion	-13.51
▁urgent	-13.51
▁seedling	-13.51
▁empower	-13.51
▁iguana	-13.51
▁bengal	-13.51
▁129	-13.51
▁lifespan	-13.51
▁amnest	-13.51
▁gangster	-13.51
▁landowner	-13.5101
▁holster	-13.5101
▁undefe	-13.5101
▁registration	-13.5101
für	-13.5101
▁vengeance	-13.5101
chromat	-13.5101
▁roast	-13.5101
priest	-13.5101
▁khmer	-13.5101
▁brahmin	-13.5101
▁conservato	-13.5101
▁pantheon	-13.5101
▁toilet	-13.5101
▁embedd	-13.5101
▁vector	-13.5101
mantle	-13.5101
▁magnate	-13.5101
▁tepe	-13.5101
▁cohesi	-13.5102
▁traged	-13.5102
▁stint	-13.5102
▁cookbook	-13.5102
riker	-13.5102
sutra	-13.5102
▁duval	-13.5102
▁goalscorer	-13.5102
▁hospitalization	-13.5102
▁bracket	-13.5102
▁lynch	-13.5102
▁marquis	-13.5103
▁goldberg	-13.5103
▁intruder	-13.5103
▁robotic	-13.5103
▁preach	-13.5103
▁hoist	-13.5103
▁parole	-13.5103
▁wiki	-13.5103
▁barrage	-13.5103
▁hanover	-13.5103
▁gemma	-13.5104
anjeev	-13.5104
▁circum	-13.5104
▁bump	-13.5104
▁feasibl	-13.5104
▁emmet	-13.5104
▁pampa	-13.5104
▁rampart	-13.5104
▁kung	-13.5105
▁sabre	-13.5105
bharata	-13.5105
▁taxonom	-13.5105
▁installment	-13.5105
▁medication	-13.5106
▁mobb	-13.5106
icoe	-13.5106
▁judgement	-13.5108
▁offence	-13.5108
▁obey	-13.5108
▁miniature	-13.5108
▁sogn	-13.5109
▁dorem	-13.5109
▁enrich	-13.5109
▁cumming	-13.5109
▁peel	-13.5109
▁flemi	-13.511
▁exotic	-13.511
▁gustav	-13.511
▁andorian	-13.511
▁ambien	-13.5111
▁kidnapp	-13.5112
▁refinery	-13.5112
▁sync	-13.5112
▁spearhead	-13.5114
▁worry	-13.5114
▁pesca	-13.5115
▁scuttl	-13.5115
▁cylinder	-13.5116
▁claimant	-13.5117
alec	-13.5117
▁hopkin	-13.5117
culina	-13.5117
▁petra	-13.5118
▁remed	-13.5119
tsu	-13.5119
▁basilica	-13.512
▁jeweller	-13.512
▁32	-13.512
▁indicator	-13.5121
édér	-13.5121
▁preacher	-13.5122
▁coco	-13.5123
▁emission	-13.5123
▁marco	-13.5124
▁fool	-13.5126
oria	-13.5126
▁pastoral	-13.5126
▁wro	-13.5127
adu	-13.5133
▁contemplat	-13.5133
isto	-13.5134
▁populariz	-13.5134
▁chronicler	-13.5135
▁annoying	-13.5137
lister	-13.514
▁glacier	-13.514
effen	-13.514
tful	-13.514
orum	-13.5141
▁formidab	-13.5141
▁conductor	-13.5142
▁violate	-13.5144
constitut	-13.5144
▁volt	-13.5145
▁necessitat	-13.5146
▁palli	-13.5146
▁gardnerian	-13.5146
usace	-13.5149
▁objector	-13.5153
▁stuck	-13.5155
bron	-13.5158
▁amass	-13.5158
▁swimmer	-13.5158
▁asthma	-13.516
▁assassinat	-13.5162
avon	-13.5162
▁admirer	-13.5165
cdonald	-13.5171
▁vida	-13.5172
▁nobili	-13.5173
▁dissolv	-13.5176
▁bless	-13.5177
▁underside	-13.5184
▁likelihood	-13.5186
▁maid	-13.5187
▁capit	-13.519
▁hal	-13.5191
meyer	-13.5193
▁herbivore	-13.5193
▁speeds	-13.5194
▁overhead	-13.52
▁heroine	-13.5201
vat	-13.5205
economic	-13.5205
▁ravana	-13.5205
▁irres	-13.5205
▁huff	-13.521
miga	-13.5212
▁agnes	-13.5212
yards	-13.5212
▁endow	-13.5215
▁bossy	-13.5216
ula	-13.522
pez	-13.5221
withstand	-13.5221
▁hypothe	-13.5225
æ	-13.5225
▁pastor	-13.5226
▁economical	-13.5226
▁understo	-13.5227
▁kor	-13.5235
▁funnies	-13.5237
ference	-13.5239
▁iris	-13.5242
▁damie	-13.5243
▁hom	-13.5243
▁byway	-13.5244
▁mariner	-13.5246
▁lining	-13.5248
glen	-13.5248
▁patche	-13.5248
street	-13.5249
▁circulate	-13.525
▁stabilize	-13.5251
▁sake	-13.5252
▁laborer	-13.5261
▁yoshi	-13.5262
▁strive	-13.5266
▁naya	-13.5268
▁unchang	-13.527
hara	-13.527
flue	-13.5272
shin	-13.5273
▁adulter	-13.5273
▁stipulat	-13.5273
▁brandy	-13.5278
toso	-13.528
gong	-13.528
▁eukaryot	-13.5283
▁duma	-13.5286
▁goose	-13.5286
hats	-13.5287
calo	-13.5287
bit	-13.5289
▁repell	-13.529
algo	-13.5293
rit	-13.5294
bou	-13.5295
treat	-13.5297
ika	-13.5298
▁coral	-13.5301
octa	-13.5303
hulk	-13.5303
ced	-13.5307
loud	-13.5308
carell	-13.5311
▁analyze	-13.5314
▁siz	-13.5317
▁contractor	-13.5319
homs	-13.5327
▁katr	-13.5334
chemist	-13.5336
▁annie	-13.5339
mas	-13.534
▁reveren	-13.5343
▁paler	-13.5345
▁intro	-13.5351
deau	-13.5353
ador	-13.5358
▁costa	-13.536
▁splits	-13.5361
nz	-13.5363
afford	-13.5365
technolog	-13.5366
▁peru	-13.5369
dylan	-13.5373
▁gai	-13.5374
ew	-13.5375
trim	-13.5379
ommel	-13.538
▁cristin	-13.5381
jordan	-13.5383
▁endors	-13.5383
▁utilis	-13.5386
hum	-13.5386
▁displace	-13.5388
automobile	-13.5394
▁dire	-13.5395
▁minded	-13.5398
apri	-13.5398
▁bats	-13.5399
▁corrupti	-13.54
perform	-13.54
wife	-13.5403
ile	-13.5404
ported	-13.5409
▁sear	-13.541
william	-13.5411
tors	-13.5411
▁revise	-13.5415
▁jeffers	-13.5415
enz	-13.5416
▁janell	-13.5423
▁degrad	-13.5428
tp	-13.543
▁spe	-13.543
▁dubliner	-13.5431
colm	-13.5431
cz	-13.5432
▁drumm	-13.5432
hild	-13.5432
▁zionis	-13.5434
▁trim	-13.5441
niel	-13.5442
goro	-13.5443
▁summers	-13.5454
fe	-13.5455
vent	-13.5458
īr	-13.5461
▁mural	-13.5465
▁kass	-13.5467
avoy	-13.5471
▁catche	-13.5474
▁ext	-13.5475
motion	-13.5477
▁keeper	-13.5479
zhong	-13.548
lown	-13.5483
▁foreigner	-13.5486
▁lano	-13.5487
nery	-13.5491
rix	-13.5495
▁barb	-13.5497
42	-13.5509
▁76	-13.5509
monia	-13.551
rage	-13.5513
▁offend	-13.552
▁colonis	-13.552
▁rarit	-13.5527
eki	-13.5528
tide	-13.5535
▁wilm	-13.5539
▁anton	-13.5539
rometric	-13.554
▁encod	-13.554
bra	-13.5543
vigat	-13.5543
unken	-13.5548
mid	-13.5549
▁bendi	-13.5554
▁culver	-13.5556
arne	-13.5556
hare	-13.5557
▁boil	-13.5562
▁transports	-13.5564
▁confiscat	-13.5566
▁decent	-13.5568
▁shand	-13.5574
ū	-13.5575
▁halls	-13.5577
canning	-13.5587
▁qualifie	-13.5589
lights	-13.5595
▁31	-13.5604
▁circ	-13.5611
▁mech	-13.5613
chapel	-13.5616
riffs	-13.5618
hula	-13.5621
▁sharma	-13.5622
demos	-13.5624
▁immers	-13.5624
okina	-13.563
▁erod	-13.5634
post	-13.5636
▁salvage	-13.5636
lang	-13.5638
arjun	-13.5638
▁eccentric	-13.564
vn	-13.5642
maid	-13.5646
▁covert	-13.5647
bb	-13.5649
▁devotee	-13.5654
▁irre	-13.5655
▁levi	-13.5655
ente	-13.5661
pio	-13.5661
rocks	-13.5663
▁pairing	-13.5668
ched	-13.5673
▁minds	-13.5674
▁bohem	-13.5675
▁frog	-13.5677
ail	-13.5679
peake	-13.5682
▁farr	-13.5685
appearance	-13.5697
local	-13.5697
bing	-13.57
orge	-13.57
▁endorse	-13.5703
blad	-13.5703
▁chun	-13.5705
extend	-13.5706
▁nha	-13.5706
▁holme	-13.5708
abu	-13.5708
weil	-13.5709
▁dre	-13.571
▁noon	-13.5712
▁nubia	-13.5713
rating	-13.5714
fr	-13.5715
opé	-13.5715
pu	-13.5721
winner	-13.5723
bels	-13.5724
▁justifi	-13.5724
▁kala	-13.5726
eth	-13.573
camp	-13.5731
bas	-13.5735
ulan	-13.5737
unami	-13.5737
rute	-13.5738
▁sponsors	-13.5738
▁riv	-13.5739
▁gare	-13.5741
▁platt	-13.5744
alli	-13.5746
▁overly	-13.5746
analysi	-13.5747
▁differentiat	-13.5751
tune	-13.5754
▁glove	-13.5754
fan	-13.5758
▁curat	-13.576
ena	-13.5764
nast	-13.5772
▁fraud	-13.5777
ars	-13.5779
xing	-13.5782
▁spectra	-13.5783
▁xu	-13.579
dili	-13.579
inaw	-13.5791
▁teng	-13.5798
▁chir	-13.5805
ops	-13.5806
▁rip	-13.5813
▁voic	-13.5818
krit	-13.5819
▁pend	-13.582
ikh	-13.5822
▁casual	-13.5827
▁kami	-13.5828
▁replicate	-13.583
terminate	-13.583
▁stadi	-13.583
▁canvas	-13.5835
ectar	-13.5841
▁heel	-13.5849
▁geographic	-13.585
dent	-13.5858
▁conspira	-13.5861
▁crypt	-13.5861
▁liberat	-13.5861
▁phonographi	-13.5862
rze	-13.5863
▁judici	-13.5865
▁wig	-13.5866
bush	-13.5866
▁hod	-13.5868
▁lip	-13.5871
garden	-13.5872
▁cab	-13.5877
▁communi	-13.5879
▁fang	-13.5885
frame	-13.5887
▁bori	-13.5887
mc	-13.5889
museum	-13.5889
pac	-13.589
▁squat	-13.5891
printing	-13.5895
pile	-13.5896
▁kens	-13.5897
centric	-13.5901
hil	-13.5903
isty	-13.5905
▁rec	-13.591
▁hymen	-13.5912
gerald	-13.592
thought	-13.5921
▁timeout	-13.5925
ophag	-13.5925
ahoo	-13.5927
▁hol	-13.5928
park	-13.593
hog	-13.5932
ohan	-13.5935
▁johan	-13.5939
▁fabric	-13.594
aft	-13.5942
lept	-13.5942
▁dune	-13.5945
▁bounc	-13.5947
logan	-13.5947
▁henri	-13.595
spector	-13.5952
alicia	-13.5953
▁tramp	-13.5956
nderson	-13.5961
▁clinic	-13.5961
▁proph	-13.5962
osion	-13.5966
á	-13.5967
▁sympath	-13.597
tes	-13.5975
▁suc	-13.5976
ake	-13.5979
gassi	-13.598
▁oblig	-13.5981
▁marr	-13.5981
▁defian	-13.5981
hé	-13.5982
arth	-13.5984
troph	-13.5986
oga	-13.5988
amster	-13.599
▁subsidi	-13.5992
aku	-13.5994
▁uttar	-13.5994
▁kidnap	-13.5996
▁qf	-13.5997
▁skelet	-13.5999
phobi	-13.5999
▁conspicuous	-13.5999
opotami	-13.6
▁evaluat	-13.6001
▁cleric	-13.6002
▁chong	-13.6002
▁82	-13.6003
nite	-13.6004
▁counsel	-13.6005
negras	-13.6007
▁telecom	-13.6008
▁raphael	-13.6008
▁instinct	-13.6008
ucket	-13.6008
▁perc	-13.6008
▁auxiliar	-13.6009
▁despair	-13.6009
▁friction	-13.6009
▁occult	-13.6009
▁oghra	-13.6009
▁alligator	-13.6009
▁anthropomorphi	-13.6009
▁camouflage	-13.6009
▁cilicia	-13.6009
▁filament	-13.6009
▁gruffud	-13.6009
▁honeymoon	-13.6009
▁inconsistent	-13.6009
▁infamous	-13.6009
▁jubilee	-13.6009
▁kalyanasundara	-13.6009
▁moscow	-13.6009
▁mudslide	-13.6009
▁nostalgi	-13.6009
▁paleontologist	-13.6009
▁palisade	-13.6009
▁pavilion	-13.6009
▁pectoral	-13.6009
▁peculiar	-13.6009
▁polypeptide	-13.6009
▁refrain	-13.6009
▁rendezvous	-13.6009
▁shropshire	-13.6009
▁unfavorabl	-13.6009
▁appellation	-13.6009
▁kaspar	-13.6009
▁mughal	-13.6009
▁therapeutic	-13.6009
▁epidemic	-13.6009
▁panoram	-13.6009
▁racquet	-13.6009
▁theropod	-13.6009
▁cromwell	-13.6009
▁kessler	-13.6009
▁maroon	-13.6009
▁aurora	-13.6009
▁curtain	-13.6009
▁drastic	-13.6009
▁solemn	-13.6009
▁dungeon	-13.6009
▁pinnacle	-13.6009
▁folktale	-13.6009
▁mislead	-13.6009
▁straightforward	-13.6009
▁barbette	-13.6009
▁cirr	-13.6009
▁vincent	-13.6009
▁exclaim	-13.6009
▁repetition	-13.6009
▁berardi	-13.6009
▁compassion	-13.6009
▁bunbury	-13.6009
▁andhra	-13.6009
▁unconscious	-13.6009
▁aboriginal	-13.6009
▁choco	-13.6009
rø	-13.6009
▁taka	-13.6009
▁undoubted	-13.601
precedent	-13.601
▁standpoint	-13.601
▁apostle	-13.601
▁proposition	-13.601
▁brittle	-13.601
▁cramp	-13.601
▁iroquoi	-13.601
▁benign	-13.601
▁ligament	-13.601
▁titus	-13.601
▁eliza	-13.6011
77	-13.6011
▁unfair	-13.6011
▁charisma	-13.6011
▁hmc	-13.6011
▁spotlight	-13.6011
affin	-13.6011
▁preface	-13.6011
▁waist	-13.6012
▁armenian	-13.6012
▁sniper	-13.6012
▁spun	-13.6012
▁systematic	-13.6012
▁draught	-13.6012
▁antiquarian	-13.6012
▁mccoy	-13.6012
zil	-13.6012
▁magnus	-13.6013
▁consultation	-13.6013
▁craftsman	-13.6013
▁magician	-13.6013
▁socialist	-13.6014
▁biscay	-13.6014
▁unionist	-13.6014
320	-13.6014
compatib	-13.6014
▁gcse	-13.6014
▁nek	-13.6014
cadill	-13.6015
assic	-13.6015
▁campground	-13.6015
▁yeast	-13.6015
▁murchad	-13.6015
▁gaba	-13.6015
elf	-13.6015
▁ascetic	-13.6015
▁argos	-13.6016
freshmen	-13.6016
▁versatil	-13.6016
bsu	-13.6017
▁axel	-13.6017
▁hollin	-13.6017
▁raider	-13.6017
literate	-13.6017
py	-13.6017
▁overturn	-13.6018
▁renewable	-13.6018
▁webber	-13.6018
▁pierce	-13.6018
▁boast	-13.6018
▁cardell	-13.6018
▁clerical	-13.6018
verpa	-13.6019
cam	-13.6019
▁contra	-13.6019
▁brake	-13.6019
▁claret	-13.6019
▁bobcat	-13.602
▁pause	-13.602
▁overflow	-13.6021
▁hatter	-13.6022
guard	-13.6023
npr	-13.6024
blew	-13.6024
▁hoard	-13.6024
▁searchlight	-13.6025
▁turbo	-13.6026
▁centi	-13.6027
spora	-13.6028
▁petty	-13.6028
▁storyboard	-13.6029
▁entail	-13.6029
▁subter	-13.6029
▁incarnation	-13.6029
▁hugo	-13.603
▁gilda	-13.603
▁luz	-13.6031
▁projectile	-13.6031
▁gibbon	-13.6033
tute	-13.6034
▁eisen	-13.6035
dé	-13.6035
▁macph	-13.6035
nwa	-13.6035
▁sloven	-13.6035
▁vibran	-13.6036
▁plow	-13.6036
▁buchan	-13.6037
▁finalist	-13.6038
▁pacer	-13.6041
▁vain	-13.6043
▁chesa	-13.6043
fit	-13.6044
▁wandering	-13.6046
reads	-13.6047
▁supplier	-13.605
▁spectroscop	-13.6051
▁fraction	-13.6052
dame	-13.6052
▁parcel	-13.6052
▁hypa	-13.6053
brandt	-13.6053
anxi	-13.6054
▁clue	-13.6055
▁corrosi	-13.6061
▁oars	-13.6062
halli	-13.6064
▁daniels	-13.6066
tank	-13.6069
▁donate	-13.607
▁macri	-13.6071
▁blog	-13.6071
▁steven	-13.6076
▁senna	-13.6078
▁centimeter	-13.6078
▁kv	-13.6082
vak	-13.6084
▁pann	-13.6085
▁mentor	-13.609
hm	-13.609
idney	-13.6091
▁gable	-13.6093
ricky	-13.6097
▁impro	-13.6097
▁meander	-13.61
crew	-13.6104
▁pré	-13.6106
▁slogan	-13.6106
▁bast	-13.6106
chu	-13.6106
▁hanu	-13.6108
▁innocen	-13.6109
▁kraus	-13.6109
▁thriv	-13.6114
wolf	-13.6117
alban	-13.6118
▁disperse	-13.6119
hell	-13.6119
▁monoga	-13.6122
▁legendar	-13.6122
ral	-13.6124
gm	-13.6126
noel	-13.6127
▁trotter	-13.6131
rogat	-13.6133
▁tatt	-13.6141
▁mellow	-13.6141
▁patricia	-13.6147
▁lateral	-13.6148
▁excavate	-13.615
▁quadruple	-13.6151
▁minimize	-13.6151
eche	-13.6153
elect	-13.6157
▁rouss	-13.6163
▁kurd	-13.6165
eli	-13.6169
▁evade	-13.6169
▁proton	-13.6171
▁banker	-13.6172
etic	-13.6176
▁supermari	-13.6177
▁instabilit	-13.6177
▁reactiv	-13.6179
▁wilder	-13.618
▁photographer	-13.6184
athlon	-13.6188
latin	-13.6188
alvar	-13.6192
▁willis	-13.6192
crush	-13.6195
genus	-13.6196
▁philipp	-13.6196
▁bute	-13.6197
▁disable	-13.6199
anders	-13.6199
▁penta	-13.6201
liabilit	-13.6205
plant	-13.6206
skies	-13.6211
▁caucasi	-13.6216
▁calcu	-13.6217
estre	-13.6222
obedience	-13.6223
▁elk	-13.6224
talk	-13.6224
cf	-13.6224
▁bé	-13.6225
mold	-13.6228
▁saund	-13.623
▁blanche	-13.6233
ila	-13.6238
▁gu	-13.6239
lio	-13.624
▁recreate	-13.6251
bard	-13.6253
▁heine	-13.6254
▁melodrama	-13.6256
wicke	-13.6257
▁denard	-13.6259
▁tempera	-13.6263
▁lep	-13.6266
▁sighted	-13.6267
▁perch	-13.6268
▁thie	-13.6269
ā	-13.627
cli	-13.6273
▁biting	-13.6275
▁choices	-13.628
cene	-13.6282
▁relie	-13.6285
▁endur	-13.6286
▁jacki	-13.6287
hearted	-13.6291
lee	-13.6293
next	-13.6293
urke	-13.6296
28	-13.6298
feed	-13.6299
▁corr	-13.6299
▁piet	-13.63
▁cham	-13.6304
▁epi	-13.6306
▁astronom	-13.6308
▁salam	-13.631
hol	-13.6312
alter	-13.6312
▁lat	-13.6314
jul	-13.6315
uble	-13.6317
▁gener	-13.6318
social	-13.6321
lis	-13.6325
▁regenerati	-13.6329
education	-13.6332
nath	-13.6334
esel	-13.6337
▁congesti	-13.6338
ione	-13.6341
sbane	-13.6344
▁basel	-13.6345
kira	-13.6347
saint	-13.6353
colon	-13.6355
▁marginal	-13.6362
▁myceli	-13.6364
▁impli	-13.6367
▁unas	-13.6371
▁magn	-13.6373
nbc	-13.6374
▁chad	-13.6374
gli	-13.6375
ttering	-13.6382
▁repel	-13.6385
unset	-13.6388
regen	-13.639
nen	-13.6391
▁lambs	-13.6392
▁cooperate	-13.6404
plex	-13.6408
▁escalat	-13.6416
▁purge	-13.6422
▁schmo	-13.6424
ico	-13.6428
dium	-13.6437
gang	-13.6438
nage	-13.644
ogie	-13.6441
len	-13.6442
combe	-13.6446
emi	-13.6448
▁headlin	-13.6449
avi	-13.645
welf	-13.6451
▁bah	-13.6453
ches	-13.6455
langer	-13.6457
▁mow	-13.6459
▁boyz	-13.6462
▁coven	-13.6463
▁vesta	-13.6469
▁prue	-13.6471
pads	-13.6472
▁reel	-13.6472
deva	-13.6472
firing	-13.6472
mor	-13.6477
▁herb	-13.6478
▁gp	-13.6482
trenche	-13.6484
▁rump	-13.6484
jay	-13.6486
▁rand	-13.6488
▁pash	-13.6488
▁knowle	-13.6491
▁lov	-13.6494
balance	-13.6501
henry	-13.6503
▁supervise	-13.6504
▁broadcaster	-13.6504
▁snap	-13.6507
ping	-13.6508
▁monast	-13.6512
▁infiltrate	-13.6512
lays	-13.6515
▁bel	-13.6522
▁dil	-13.6523
eligib	-13.6526
duke	-13.653
▁echoe	-13.6532
▁bough	-13.6532
grand	-13.6532
scent	-13.6534
antara	-13.6535
discover	-13.6536
▁continual	-13.6537
▁prat	-13.6539
emic	-13.6541
▁flick	-13.6541
peg	-13.655
▁terra	-13.6551
▁localization	-13.6552
ivor	-13.656
songs	-13.6561
cos	-13.6562
uka	-13.6563
▁riddle	-13.6572
ipping	-13.6574
debt	-13.6574
rib	-13.6575
adt	-13.6583
▁brainwash	-13.6585
satisfactor	-13.6586
▁despatche	-13.6587
▁kawai	-13.6587
▁birk	-13.659
riga	-13.6594
▁tetra	-13.6595
▁hof	-13.66
▁launcher	-13.6605
interest	-13.6611
▁sonic	-13.6611
▁idle	-13.6614
mage	-13.6617
resolve	-13.6624
nails	-13.6627
agan	-13.6627
secure	-13.6629
▁mycelia	-13.663
nacht	-13.6633
esar	-13.6638
news	-13.6639
toxic	-13.6642
dike	-13.6643
dome	-13.6644
▁tam	-13.6645
▁harv	-13.665
argua	-13.6651
ulsion	-13.6652
cor	-13.6652
▁reappear	-13.6654
▁thematic	-13.6654
▁tra	-13.6657
17	-13.6658
▁blockad	-13.666
▁allocate	-13.6664
▁snapp	-13.6668
deer	-13.6668
▁carolin	-13.6669
skill	-13.6673
mach	-13.6673
gh	-13.6675
restrict	-13.6679
▁dharm	-13.6681
shine	-13.6682
running	-13.6686
tto	-13.6687
zac	-13.6687
▁siri	-13.6687
▁bha	-13.6689
ovick	-13.6692
toll	-13.6696
alan	-13.6696
▁strick	-13.6697
ivo	-13.6701
▁exaggerat	-13.6707
sori	-13.6707
bot	-13.6708
ppen	-13.6711
▁swell	-13.6713
▁pola	-13.672
▁illinoise	-13.6723
▁referenc	-13.6725
pg	-13.6725
ets	-13.6733
grat	-13.6733
▁biolog	-13.6735
dden	-13.6744
shield	-13.6746
tiz	-13.6748
rin	-13.6748
▁tap	-13.6752
kal	-13.6761
dust	-13.6761
▁divin	-13.6763
opp	-13.6766
▁rosso	-13.6768
èt	-13.677
population	-13.6773
▁holder	-13.6773
rative	-13.6774
▁batch	-13.6776
olac	-13.6777
▁wilt	-13.678
help	-13.6783
neill	-13.6786
▁cricketer	-13.6786
▁bodi	-13.6793
llum	-13.6795
feldma	-13.6798
quarter	-13.6799
▁berth	-13.6804
tick	-13.6807
lian	-13.6809
▁eros	-13.6811
▁scarf	-13.6812
grade	-13.6812
▁nag	-13.6819
è	-13.6827
strom	-13.683
ava	-13.6833
asha	-13.6835
▁spar	-13.6837
ardan	-13.6838
▁ribosom	-13.6841
meri	-13.6843
▁jeffer	-13.6844
▁naga	-13.6845
▁collaborate	-13.6847
▁jian	-13.6849
kva	-13.6854
▁fc	-13.6856
▁favourabl	-13.6857
▁synthesize	-13.6858
▁financ	-13.6859
▁shran	-13.6862
▁diari	-13.6868
▁travers	-13.6869
▁wat	-13.6871
kiel	-13.6874
oni	-13.6875
▁pal	-13.6877
▁vijay	-13.6878
▁intake	-13.6878
▁predat	-13.6879
▁farthe	-13.6883
▁antibod	-13.6884
▁retake	-13.6886
ska	-13.6887
nebu	-13.6887
tention	-13.6888
▁aborti	-13.6889
irka	-13.6889
▁kol	-13.6889
▁surreal	-13.6891
▁damn	-13.6893
ora	-13.6895
▁anup	-13.6897
wave	-13.6897
llor	-13.6898
▁cag	-13.6898
▁revolv	-13.6899
keep	-13.6899
oax	-13.6905
▁purit	-13.6909
oil	-13.691
marck	-13.6911
cess	-13.6913
▁evaluate	-13.6913
▁dialect	-13.6913
▁twit	-13.6913
▁recess	-13.6918
opol	-13.6918
xvi	-13.6922
▁dee	-13.6923
iberia	-13.6924
▁stegosaur	-13.6931
women	-13.6934
specifi	-13.6935
▁ransom	-13.6935
▁dumb	-13.6936
vr	-13.6939
nate	-13.6943
▁plent	-13.6945
uria	-13.6949
▁reclassifi	-13.6952
▁cua	-13.6953
urs	-13.6954
▁lambeosaur	-13.6954
▁discus	-13.6957
▁wii	-13.6961
nn	-13.6961
▁invalid	-13.6962
▁romano	-13.6969
▁fidel	-13.6974
▁psyche	-13.6976
▁plott	-13.6979
dych	-13.698
▁innovat	-13.6981
orbit	-13.6987
ocean	-13.6987
uncle	-13.6989
▁drafts	-13.6989
▁vall	-13.699
▁constrain	-13.699
ál	-13.6991
rik	-13.6992
▁pollut	-13.6994
▁dominic	-13.6994
▁gia	-13.6995
▁gui	-13.6996
aíb	-13.6998
sence	-13.6999
▁diploma	-13.7
▁scare	-13.7001
▁linguist	-13.7002
69	-13.7003
▁weiss	-13.7004
▁exempt	-13.7006
▁profess	-13.7006
populat	-13.7006
▁refurbish	-13.7008
evast	-13.7008
▁ignoran	-13.7008
▁aggressi	-13.7008
▁embroi	-13.7009
template	-13.7009
▁equilibr	-13.7009
ṃ	-13.7009
▁antisemiti	-13.7009
▁appalachian	-13.7009
▁benevolen	-13.7009
▁caregiver	-13.7009
▁catapult	-13.7009
▁commodit	-13.7009
▁embankment	-13.7009
▁exacerbate	-13.7009
▁habroptil	-13.7009
▁invincible	-13.7009
▁moncrief	-13.7009
▁mycorrhiza	-13.7009
▁perpendicular	-13.7009
▁promyelocyt	-13.7009
▁raccoon	-13.7009
▁udaygha	-13.7009
▁unjust	-13.7009
▁hieroglyph	-13.7009
▁weevil	-13.7009
▁beaufighter	-13.7009
▁blossom	-13.7009
▁disorgani	-13.7009
▁honeyeater	-13.7009
▁pessimis	-13.7009
▁puebl	-13.7009
▁tasmania	-13.7009
▁archdeacon	-13.7009
▁precept	-13.7009
▁dismast	-13.7009
▁effig	-13.7009
▁enthrone	-13.7009
bhumi	-13.7009
▁embalm	-13.7009
▁moult	-13.7009
▁purported	-13.7009
▁wreath	-13.7009
▁enquir	-13.7009
▁sarsen	-13.7009
▁anesthetic	-13.7009
▁militant	-13.7009
▁empress	-13.7009
plausibl	-13.7009
▁cognitive	-13.7009
▁transverse	-13.7009
▁translocation	-13.7009
▁delusion	-13.7009
▁jakob	-13.7009
▁apricot	-13.7009
▁email	-13.7009
▁nitrate	-13.7009
▁grievance	-13.7009
▁interlude	-13.7009
▁maraud	-13.7009
▁sermon	-13.7009
▁envoy	-13.7009
▁overhaul	-13.7009
▁accomplice	-13.7009
▁motorsport	-13.7009
banjo	-13.7009
▁biologist	-13.7009
▁inflammat	-13.7009
▁wrangl	-13.7009
▁incompeten	-13.7009
▁agenda	-13.7009
▁prognostic	-13.7009
▁catastroph	-13.7009
▁exhale	-13.7009
▁spoof	-13.7009
▁blunt	-13.7009
▁surya	-13.7009
▁headdress	-13.7009
▁delightful	-13.7009
▁anterior	-13.7009
▁banaras	-13.7009
▁dickens	-13.7009
▁chalk	-13.7009
▁cheek	-13.7009
▁muddy	-13.7009
▁theorem	-13.7009
▁handbag	-13.7009
▁saxophon	-13.7009
▁bodyguard	-13.7009
▁ligand	-13.7009
▁shrew	-13.701
▁baibar	-13.701
arithm	-13.701
▁oyster	-13.701
▁trollop	-13.701
borde	-13.701
▁clyde	-13.701
▁frighten	-13.701
▁pepper	-13.701
▁anglicu	-13.701
▁coloss	-13.701
▁northampton	-13.701
▁solicit	-13.701
▁stronghold	-13.701
▁rhine	-13.701
▁blister	-13.701
▁graffit	-13.701
▁eyewall	-13.701
▁rediscover	-13.701
scor	-13.701
▁millionaire	-13.701
▁harassment	-13.701
▁perfume	-13.701
▁gaunt	-13.701
▁muang	-13.701
▁stylistic	-13.701
rml	-13.701
▁aspiration	-13.7011
▁squatter	-13.7011
▁motorcycle	-13.7011
▁lizard	-13.7011
etho	-13.7011
madsen	-13.7011
▁rigid	-13.7011
▁flax	-13.7011
▁papyr	-13.7011
▁pasup	-13.7011
▁disabilit	-13.7011
shaiva	-13.7011
▁stylish	-13.7011
▁harihara	-13.7011
▁yacht	-13.7011
▁singular	-13.7012
▁solicitor	-13.7012
▁undertaking	-13.7012
▁hedge	-13.7012
▁muscular	-13.7012
▁engraver	-13.7012
▁constable	-13.7012
▁exemption	-13.7012
jeune	-13.7012
▁catalyst	-13.7013
▁pasture	-13.7013
▁protrud	-13.7013
▁1870	-13.7013
▁potent	-13.7013
▁banana	-13.7013
▁obstruction	-13.7013
▁tenant	-13.7013
▁regroup	-13.7013
▁mustang	-13.7013
▁generous	-13.7013
▁cork	-13.7013
▁drunken	-13.7013
▁maiden	-13.7013
▁crocodile	-13.7013
kuten	-13.7014
▁mutation	-13.7014
▁extraction	-13.7014
icus	-13.7014
▁recurv	-13.7014
▁defendant	-13.7014
▁incurr	-13.7015
▁fluorescent	-13.7015
elix	-13.7015
toid	-13.7015
▁anomal	-13.7016
ifice	-13.7016
▁hernia	-13.7016
▁sola	-13.7016
▁restraint	-13.7017
▁dragg	-13.7017
64	-13.7017
▁sabotage	-13.7018
▁lecturer	-13.7018
▁alfons	-13.7019
▁expressive	-13.7019
▁spectacle	-13.7019
tomato	-13.702
pyxi	-13.702
▁dais	-13.702
▁braun	-13.7021
▁combatant	-13.7022
▁garment	-13.7022
▁garde	-13.7023
▁morphological	-13.7023
▁hutchins	-13.7025
▁torrent	-13.7025
salem	-13.7026
▁bole	-13.7026
▁doom	-13.7027
gestion	-13.7028
forward	-13.7028
▁atlas	-13.7028
▁merry	-13.7028
▁changeup	-13.7029
andler	-13.7029
hassan	-13.7029
tenor	-13.703
▁drag	-13.703
▁polygon	-13.7032
▁foal	-13.7034
▁castro	-13.7034
▁clad	-13.7034
▁keel	-13.7037
▁soften	-13.704
▁archaea	-13.704
▁potas	-13.7041
▁marques	-13.7043
ige	-13.7043
▁heid	-13.7044
▁jelly	-13.7045
▁finer	-13.7045
▁scald	-13.7045
▁dwelling	-13.7046
▁clarifi	-13.7046
▁sudan	-13.7046
▁reminder	-13.7048
▁metropoli	-13.7049
▁yama	-13.705
▁steiner	-13.7051
fries	-13.7051
▁allude	-13.7051
▁adorj	-13.7055
▁cynic	-13.7056
▁veera	-13.7056
▁narv	-13.7056
▁dweller	-13.7056
▁heighten	-13.7057
▁tricks	-13.7057
▁greet	-13.7058
▁crafts	-13.7058
▁mcgra	-13.706
▁breakage	-13.7062
vance	-13.7064
▁laz	-13.7064
▁glucos	-13.7065
▁summaris	-13.7066
▁psychoactiv	-13.7067
▁assent	-13.7068
yu	-13.7069
▁isthm	-13.707
wash	-13.7072
▁paw	-13.7077
▁forecaster	-13.708
▁dissipate	-13.7083
▁imam	-13.709
▁norsk	-13.7094
▁wab	-13.7095
shrut	-13.7095
▁brawl	-13.7095
▁trades	-13.7096
intern	-13.7097
▁ghara	-13.71
▁koop	-13.7102
zig	-13.7103
cancer	-13.7103
▁curiosit	-13.7106
horst	-13.7108
crosa	-13.7109
▁ventr	-13.711
▁tornado	-13.711
▁mocking	-13.7111
▁disuse	-13.7112
▁fluorescen	-13.7113
▁magdalena	-13.7113
▁tendon	-13.7115
proof	-13.7118
▁monda	-13.7118
algar	-13.712
▁fokk	-13.712
▁flan	-13.7121
▁triceratops	-13.7122
▁elastic	-13.7123
▁bp	-13.7125
▁vitr	-13.7126
▁stigma	-13.713
▁popp	-13.713
▁palac	-13.7135
qué	-13.7135
total	-13.7135
▁acorn	-13.7136
▁faust	-13.7136
xion	-13.7137
ald	-13.714
gree	-13.7144
▁roan	-13.7144
▁rower	-13.7147
cca	-13.7149
▁nett	-13.7149
buri	-13.7151
lateral	-13.7153
▁fibro	-13.7153
▁stamped	-13.7154
eño	-13.7155
▁mou	-13.7155
▁hendri	-13.7159
▁retailer	-13.7164
▁vacanc	-13.7167
▁gamers	-13.7167
▁precipitat	-13.7172
▁jagge	-13.7174
▁outsider	-13.7176
▁serbia	-13.7178
▁coating	-13.7178
▁sedge	-13.718
▁beech	-13.7181
▁grind	-13.7192
▁cran	-13.7193
lington	-13.7193
▁rash	-13.7193
▁scho	-13.7194
pala	-13.7194
▁braver	-13.7203
member	-13.7206
▁swarm	-13.7214
▁rig	-13.7214
▁pater	-13.7218
▁intimidat	-13.722
tham	-13.722
▁mohamm	-13.7223
▁arouse	-13.7223
▁wilbur	-13.7224
▁enrage	-13.7225
▁winger	-13.7228
think	-13.7231
iago	-13.7233
▁jero	-13.7235
▁micke	-13.7236
cdt	-13.7236
▁possesse	-13.7237
sir	-13.724
▁exp	-13.7241
▁racis	-13.7242
▁levit	-13.7243
▁disciple	-13.7246
▁edgar	-13.7249
▁sew	-13.7251
hour	-13.7252
guel	-13.7255
kus	-13.7268
▁eukaryote	-13.7274
▁geolog	-13.7276
▁recorder	-13.7276
lumni	-13.7276
▁nun	-13.7277
vocation	-13.7277
▁wid	-13.728
ottam	-13.7282
tru	-13.7282
▁mitos	-13.7285
▁lamina	-13.7287
bok	-13.7288
uls	-13.7288
▁natali	-13.7292
folio	-13.7296
kata	-13.7296
wil	-13.7297
▁rott	-13.7297
▁baptiste	-13.7301
rera	-13.7305
▁dong	-13.7307
▁convergen	-13.731
contest	-13.7312
smo	-13.7314
lop	-13.7319
▁tuck	-13.7325
▁barra	-13.7327
khan	-13.7328
▁correlat	-13.733
rko	-13.733
▁peptide	-13.7334
▁needle	-13.7336
▁humiliat	-13.7338
▁impersonat	-13.734
kies	-13.7342
arren	-13.7345
▁transcribe	-13.7357
loid	-13.7362
▁zu	-13.7363
chuan	-13.7364
▁cau	-13.737
trous	-13.7375
▁signifie	-13.7379
▁saf	-13.7381
ident	-13.7389
▁slop	-13.739
aji	-13.739
▁sa	-13.7392
▁syndicate	-13.74
aples	-13.74
▁bol	-13.7401
molin	-13.7402
▁conceive	-13.7403
▁believer	-13.7403
pierre	-13.7407
▁localit	-13.7409
▁fra	-13.7409
weed	-13.741
hut	-13.7411
▁catcher	-13.7413
rides	-13.7417
▁jesse	-13.7417
hash	-13.7422
▁wac	-13.7423
oso	-13.7424
string	-13.7426
▁fri	-13.7427
▁harmonica	-13.7432
▁intervene	-13.7433
wicz	-13.7441
▁splitt	-13.7443
▁boarding	-13.7444
highway	-13.7445
▁infiltrat	-13.7448
lude	-13.7448
ight	-13.7448
▁alban	-13.7453
▁wit	-13.7458
ink	-13.746
ully	-13.7463
edge	-13.7464
agne	-13.7466
hong	-13.7466
▁lobe	-13.7466
▁exercis	-13.7471
ards	-13.7472
rín	-13.7472
jer	-13.7473
merid	-13.7474
nia	-13.7474
jaya	-13.7477
▁hype	-13.7481
▁pare	-13.7481
solu	-13.7483
igner	-13.7487
▁miran	-13.7492
▁contrasting	-13.7493
arish	-13.7493
france	-13.7496
▁mur	-13.7498
▁dredge	-13.75
▁communicat	-13.75
hin	-13.7501
▁scan	-13.7504
▁pint	-13.7505
reported	-13.7506
▁commute	-13.7507
batos	-13.7508
▁bars	-13.7514
onation	-13.7515
anagara	-13.7526
mix	-13.7526
▁russ	-13.7527
▁kemp	-13.7527
▁jess	-13.7529
▁dial	-13.7539
▁wend	-13.754
cile	-13.7545
▁precis	-13.7547
▁hap	-13.7554
▁spill	-13.7554
melt	-13.7555
▁grays	-13.7558
paper	-13.7559
eph	-13.756
▁dani	-13.756
dev	-13.7562
ocarp	-13.7568
chelle	-13.757
▁grims	-13.7572
script	-13.7577
conic	-13.7585
▁aq	-13.7585
ravind	-13.7586
▁gabo	-13.7589
▁retract	-13.7596
ilean	-13.7598
iting	-13.7599
clep	-13.7608
pick	-13.7609
▁archa	-13.761
▁eclips	-13.761
esports	-13.7611
trial	-13.7612
br	-13.7615
▁pond	-13.7615
reby	-13.7616
▁bandit	-13.7618
cup	-13.7618
▁clone	-13.762
tter	-13.7627
strength	-13.7631
▁alexandr	-13.7632
▁dispatche	-13.7633
▁brace	-13.7635
arry	-13.7636
▁schne	-13.7637
enzie	-13.7641
blanc	-13.7647
rium	-13.7647
von	-13.7649
▁articulate	-13.7652
▁castil	-13.7655
▁ecolog	-13.7657
oll	-13.7659
sima	-13.7666
▁anthropolog	-13.7671
agh	-13.7676
plastic	-13.7677
▁osborn	-13.7682
nicks	-13.7686
▁pad	-13.7698
▁empti	-13.7701
pw	-13.7704
▁bony	-13.7704
▁salaa	-13.7704
ilton	-13.7707
▁lever	-13.7707
pest	-13.7707
opulation	-13.7708
oster	-13.7713
▁sphere	-13.7714
grant	-13.7715
▁pondero	-13.7715
masa	-13.7717
▁thrower	-13.7721
allon	-13.7723
▁juxtapos	-13.7724
▁lambe	-13.7725
sato	-13.7731
▁halle	-13.7735
tamper	-13.7738
oka	-13.774
erra	-13.774
▁tease	-13.7745
▁twi	-13.7748
▁eras	-13.7748
▁slim	-13.7755
irs	-13.7757
▁reich	-13.776
▁behead	-13.776
maa	-13.7761
shed	-13.7763
mini	-13.7763
▁koni	-13.7769
▁calam	-13.777
ntz	-13.7771
infect	-13.7773
▁jovi	-13.7779
quite	-13.7785
▁swords	-13.7786
almen	-13.7788
gul	-13.7792
gt	-13.7793
symmetrical	-13.7794
▁mcfa	-13.7797
mit	-13.7799
▁headline	-13.7801
baft	-13.7803
▁pot	-13.7803
pot	-13.7806
▁spa	-13.7807
grom	-13.7807
▁depos	-13.781
▁standardis	-13.7811
▁wh	-13.7811
▁planta	-13.7812
aban	-13.7813
rée	-13.7817
▁moch	-13.7819
televis	-13.782
dia	-13.782
▁pill	-13.7821
fact	-13.7825
wali	-13.7826
rung	-13.7831
shrine	-13.7833
deal	-13.7834
▁maur	-13.7838
region	-13.784
▁cruel	-13.7841
▁aber	-13.7844
▁incapa	-13.7857
erich	-13.7859
▁shan	-13.7859
izing	-13.7859
icy	-13.786
▁constitut	-13.7863
haw	-13.7864
▁socie	-13.7864
▁hum	-13.7865
▁exclude	-13.7865
▁explod	-13.7866
▁awe	-13.7867
exist	-13.7873
rhea	-13.7876
inea	-13.7879
nk	-13.7882
aris	-13.7885
bull	-13.7886
zar	-13.7898
oma	-13.7901
▁hadrosaur	-13.7905
locks	-13.7906
laughter	-13.7911
▁helg	-13.7911
pots	-13.7912
▁conne	-13.7918
sale	-13.7918
hal	-13.7923
trailer	-13.7924
kers	-13.7924
map	-13.7928
morph	-13.793
▁conced	-13.7931
eville	-13.7937
biase	-13.7944
▁jeni	-13.7945
eri	-13.7946
▁tal	-13.7948
▁mayors	-13.7951
▁gast	-13.7951
▁malay	-13.7951
▁rhythmic	-13.7951
winter	-13.7952
ih	-13.7952
logg	-13.7954
leck	-13.7956
nge	-13.7964
▁intermedi	-13.7966
center	-13.797
kura	-13.797
▁triangulat	-13.7972
▁scrutin	-13.7972
rita	-13.7976
ks	-13.7981
▁pea	-13.7982
gpus	-13.7984
▁thermo	-13.7984
▁mayer	-13.7985
good	-13.799
▁slav	-13.799
aff	-13.799
welt	-13.799
sham	-13.7991
▁wav	-13.7992
tart	-13.7996
▁parasauroloph	-13.7997
▁stark	-13.8
stad	-13.8006
ư	-13.8007
▁irv	-13.8009
▁smile	-13.801
▁mama	-13.801
ket	-13.8012
▁clem	-13.8018
wain	-13.8024
▁dipp	-13.8032
sco	-13.8034
▁debat	-13.8034
▁nur	-13.8035
▁imitate	-13.804
mic	-13.8041
▁rover	-13.8041
ety	-13.8043
▁sud	-13.8046
▁waive	-13.8047
▁watt	-13.8047
bid	-13.8048
▁gm	-13.8048
▁fal	-13.8053
▁dill	-13.8054
▁dunde	-13.8054
▁hurl	-13.8054
onic	-13.8065
▁paste	-13.8066
▁compli	-13.8068
▁norm	-13.8077
▁muse	-13.8078
▁lucia	-13.8079
▁surgical	-13.8087
▁fulfil	-13.8088
types	-13.8091
▁bach	-13.8092
ichi	-13.8092
▁linga	-13.8094
▁suppose	-13.8094
▁rational	-13.8096
avian	-13.8097
▁gya	-13.8097
▁hodg	-13.8097
▁guang	-13.81
yale	-13.8105
▁ucl	-13.8107
ornis	-13.8107
▁assassinate	-13.8108
ach	-13.8109
▁straw	-13.8112
▁skate	-13.8112
▁ceratopsia	-13.8114
nclave	-13.8114
▁creativ	-13.8115
▁obstruct	-13.8115
▁northumbria	-13.8115
▁enthusiast	-13.8116
▁notifi	-13.8117
rumble	-13.8118
▁eject	-13.8119
▁catalog	-13.8119
▁legitima	-13.8119
▁apocalyp	-13.812
▁transcend	-13.812
▁sejm	-13.812
▁indefinite	-13.812
▁discreet	-13.812
▁inaccurate	-13.812
û	-13.812
▁ablution	-13.812
▁chailletii	-13.812
▁chalukya	-13.812
▁clarify	-13.812
▁crevice	-13.812
▁diagonal	-13.812
▁dialog	-13.812
▁disapprov	-13.812
▁dreyfus	-13.812
▁endeavor	-13.812
▁fiancé	-13.812
▁impoverish	-13.812
▁instalment	-13.812
[...]
